{
  "version": "1.0",
  "truncation": null,
  "padding": null,
  "added_tokens": [
    {
      "id": 0,
      "content": "<pad>",
      "single_word": false,
      "lstrip": false,
      "rstrip": false,
      "normalized": false,
      "special": true
    },
    {
      "id": 1,
      "content": "<s>",
      "single_word": false,
      "lstrip": false,
      "rstrip": false,
      "normalized": false,
      "special": true
    },
    {
      "id": 2,
      "content": "</s>",
      "single_word": false,
      "lstrip": false,
      "rstrip": false,
      "normalized": false,
      "special": true
    },
    {
      "id": 3,
      "content": "<unk>",
      "single_word": false,
      "lstrip": false,
      "rstrip": false,
      "normalized": false,
      "special": true
    },
    {
      "id": 4,
      "content": "<__NNP__>",
      "single_word": false,
      "lstrip": false,
      "rstrip": false,
      "normalized": false,
      "special": true
    },
    {
      "id": 5,
      "content": "<__written__>",
      "single_word": false,
      "lstrip": false,
      "rstrip": false,
      "normalized": false,
      "special": true
    },
    {
      "id": 6,
      "content": "<__spoken__>",
      "single_word": false,
      "lstrip": false,
      "rstrip": false,
      "normalized": false,
      "special": true
    },
    {
      "id": 7,
      "content": "<__patent__>",
      "single_word": false,
      "lstrip": false,
      "rstrip": false,
      "normalized": false,
      "special": true
    },
    {
      "id": 8,
      "content": "<__api_docs__>",
      "single_word": false,
      "lstrip": false,
      "rstrip": false,
      "normalized": false,
      "special": true
    },
    {
      "id": 9,
      "content": "<__formal__>",
      "single_word": false,
      "lstrip": false,
      "rstrip": false,
      "normalized": false,
      "special": true
    },
    {
      "id": 10,
      "content": "<__casual__>",
      "single_word": false,
      "lstrip": false,
      "rstrip": false,
      "normalized": false,
      "special": true
    },
    {
      "id": 11,
      "content": "<unused_7>",
      "single_word": false,
      "lstrip": false,
      "rstrip": false,
      "normalized": false,
      "special": true
    },
    {
      "id": 12,
      "content": "<unused_8>",
      "single_word": false,
      "lstrip": false,
      "rstrip": false,
      "normalized": false,
      "special": true
    },
    {
      "id": 13,
      "content": "<unused_9>",
      "single_word": false,
      "lstrip": false,
      "rstrip": false,
      "normalized": false,
      "special": true
    },
    {
      "id": 14,
      "content": "<unused_10>",
      "single_word": false,
      "lstrip": false,
      "rstrip": false,
      "normalized": false,
      "special": true
    },
    {
      "id": 15,
      "content": "<unused_11>",
      "single_word": false,
      "lstrip": false,
      "rstrip": false,
      "normalized": false,
      "special": true
    },
    {
      "id": 16,
      "content": "<unused_12>",
      "single_word": false,
      "lstrip": false,
      "rstrip": false,
      "normalized": false,
      "special": true
    },
    {
      "id": 17,
      "content": "<unused_13>",
      "single_word": false,
      "lstrip": false,
      "rstrip": false,
      "normalized": false,
      "special": true
    },
    {
      "id": 18,
      "content": "<unused_14>",
      "single_word": false,
      "lstrip": false,
      "rstrip": false,
      "normalized": false,
      "special": true
    },
    {
      "id": 19,
      "content": "<unused_15>",
      "single_word": false,
      "lstrip": false,
      "rstrip": false,
      "normalized": false,
      "special": true
    },
    {
      "id": 20,
      "content": "<unused_16>",
      "single_word": false,
      "lstrip": false,
      "rstrip": false,
      "normalized": false,
      "special": true
    },
    {
      "id": 21,
      "content": "<unused_17>",
      "single_word": false,
      "lstrip": false,
      "rstrip": false,
      "normalized": false,
      "special": true
    },
    {
      "id": 22,
      "content": "<unused_18>",
      "single_word": false,
      "lstrip": false,
      "rstrip": false,
      "normalized": false,
      "special": true
    },
    {
      "id": 23,
      "content": "<unused_19>",
      "single_word": false,
      "lstrip": false,
      "rstrip": false,
      "normalized": false,
      "special": true
    },
    {
      "id": 24,
      "content": "<unused_20>",
      "single_word": false,
      "lstrip": false,
      "rstrip": false,
      "normalized": false,
      "special": true
    },
    {
      "id": 25,
      "content": "<unused_21>",
      "single_word": false,
      "lstrip": false,
      "rstrip": false,
      "normalized": false,
      "special": true
    },
    {
      "id": 26,
      "content": "<unused_22>",
      "single_word": false,
      "lstrip": false,
      "rstrip": false,
      "normalized": false,
      "special": true
    },
    {
      "id": 27,
      "content": "<unused_23>",
      "single_word": false,
      "lstrip": false,
      "rstrip": false,
      "normalized": false,
      "special": true
    },
    {
      "id": 28,
      "content": "<unused_24>",
      "single_word": false,
      "lstrip": false,
      "rstrip": false,
      "normalized": false,
      "special": true
    },
    {
      "id": 29,
      "content": "<unused_25>",
      "single_word": false,
      "lstrip": false,
      "rstrip": false,
      "normalized": false,
      "special": true
    },
    {
      "id": 30,
      "content": "<unused_26>",
      "single_word": false,
      "lstrip": false,
      "rstrip": false,
      "normalized": false,
      "special": true
    },
    {
      "id": 31,
      "content": "<unused_27>",
      "single_word": false,
      "lstrip": false,
      "rstrip": false,
      "normalized": false,
      "special": true
    },
    {
      "id": 32,
      "content": "<unused_28>",
      "single_word": false,
      "lstrip": false,
      "rstrip": false,
      "normalized": false,
      "special": true
    },
    {
      "id": 33,
      "content": "<unused_29>",
      "single_word": false,
      "lstrip": false,
      "rstrip": false,
      "normalized": false,
      "special": true
    },
    {
      "id": 34,
      "content": "<unused_30>",
      "single_word": false,
      "lstrip": false,
      "rstrip": false,
      "normalized": false,
      "special": true
    },
    {
      "id": 35,
      "content": "<unused_31>",
      "single_word": false,
      "lstrip": false,
      "rstrip": false,
      "normalized": false,
      "special": true
    },
    {
      "id": 36,
      "content": "<unused_32>",
      "single_word": false,
      "lstrip": false,
      "rstrip": false,
      "normalized": false,
      "special": true
    },
    {
      "id": 37,
      "content": "<unused_33>",
      "single_word": false,
      "lstrip": false,
      "rstrip": false,
      "normalized": false,
      "special": true
    },
    {
      "id": 38,
      "content": "<unused_34>",
      "single_word": false,
      "lstrip": false,
      "rstrip": false,
      "normalized": false,
      "special": true
    },
    {
      "id": 39,
      "content": "<unused_35>",
      "single_word": false,
      "lstrip": false,
      "rstrip": false,
      "normalized": false,
      "special": true
    },
    {
      "id": 40,
      "content": "<unused_36>",
      "single_word": false,
      "lstrip": false,
      "rstrip": false,
      "normalized": false,
      "special": true
    },
    {
      "id": 41,
      "content": "<unused_37>",
      "single_word": false,
      "lstrip": false,
      "rstrip": false,
      "normalized": false,
      "special": true
    },
    {
      "id": 42,
      "content": "<unused_38>",
      "single_word": false,
      "lstrip": false,
      "rstrip": false,
      "normalized": false,
      "special": true
    },
    {
      "id": 43,
      "content": "<unused_39>",
      "single_word": false,
      "lstrip": false,
      "rstrip": false,
      "normalized": false,
      "special": true
    },
    {
      "id": 44,
      "content": "<unused_40>",
      "single_word": false,
      "lstrip": false,
      "rstrip": false,
      "normalized": false,
      "special": true
    },
    {
      "id": 45,
      "content": "<unused_41>",
      "single_word": false,
      "lstrip": false,
      "rstrip": false,
      "normalized": false,
      "special": true
    },
    {
      "id": 46,
      "content": "<unused_42>",
      "single_word": false,
      "lstrip": false,
      "rstrip": false,
      "normalized": false,
      "special": true
    },
    {
      "id": 47,
      "content": "<unused_43>",
      "single_word": false,
      "lstrip": false,
      "rstrip": false,
      "normalized": false,
      "special": true
    },
    {
      "id": 48,
      "content": "<unused_44>",
      "single_word": false,
      "lstrip": false,
      "rstrip": false,
      "normalized": false,
      "special": true
    },
    {
      "id": 49,
      "content": "<unused_45>",
      "single_word": false,
      "lstrip": false,
      "rstrip": false,
      "normalized": false,
      "special": true
    },
    {
      "id": 50,
      "content": "<unused_46>",
      "single_word": false,
      "lstrip": false,
      "rstrip": false,
      "normalized": false,
      "special": true
    },
    {
      "id": 51,
      "content": "<unused_47>",
      "single_word": false,
      "lstrip": false,
      "rstrip": false,
      "normalized": false,
      "special": true
    },
    {
      "id": 52,
      "content": "<unused_48>",
      "single_word": false,
      "lstrip": false,
      "rstrip": false,
      "normalized": false,
      "special": true
    },
    {
      "id": 53,
      "content": "<unused_49>",
      "single_word": false,
      "lstrip": false,
      "rstrip": false,
      "normalized": false,
      "special": true
    },
    {
      "id": 54,
      "content": "<unused_50>",
      "single_word": false,
      "lstrip": false,
      "rstrip": false,
      "normalized": false,
      "special": true
    },
    {
      "id": 55,
      "content": "<unused_51>",
      "single_word": false,
      "lstrip": false,
      "rstrip": false,
      "normalized": false,
      "special": true
    },
    {
      "id": 56,
      "content": "<unused_52>",
      "single_word": false,
      "lstrip": false,
      "rstrip": false,
      "normalized": false,
      "special": true
    },
    {
      "id": 57,
      "content": "<unused_53>",
      "single_word": false,
      "lstrip": false,
      "rstrip": false,
      "normalized": false,
      "special": true
    },
    {
      "id": 58,
      "content": "<unused_54>",
      "single_word": false,
      "lstrip": false,
      "rstrip": false,
      "normalized": false,
      "special": true
    },
    {
      "id": 59,
      "content": "<unused_55>",
      "single_word": false,
      "lstrip": false,
      "rstrip": false,
      "normalized": false,
      "special": true
    },
    {
      "id": 60,
      "content": "<unused_56>",
      "single_word": false,
      "lstrip": false,
      "rstrip": false,
      "normalized": false,
      "special": true
    },
    {
      "id": 61,
      "content": "<unused_57>",
      "single_word": false,
      "lstrip": false,
      "rstrip": false,
      "normalized": false,
      "special": true
    },
    {
      "id": 62,
      "content": "<unused_58>",
      "single_word": false,
      "lstrip": false,
      "rstrip": false,
      "normalized": false,
      "special": true
    },
    {
      "id": 63,
      "content": "<unused_59>",
      "single_word": false,
      "lstrip": false,
      "rstrip": false,
      "normalized": false,
      "special": true
    },
    {
      "id": 64,
      "content": "<unused_60>",
      "single_word": false,
      "lstrip": false,
      "rstrip": false,
      "normalized": false,
      "special": true
    },
    {
      "id": 65,
      "content": "<unused_61>",
      "single_word": false,
      "lstrip": false,
      "rstrip": false,
      "normalized": false,
      "special": true
    },
    {
      "id": 66,
      "content": "<unused_62>",
      "single_word": false,
      "lstrip": false,
      "rstrip": false,
      "normalized": false,
      "special": true
    },
    {
      "id": 67,
      "content": "<unused_63>",
      "single_word": false,
      "lstrip": false,
      "rstrip": false,
      "normalized": false,
      "special": true
    },
    {
      "id": 68,
      "content": "<unused_64>",
      "single_word": false,
      "lstrip": false,
      "rstrip": false,
      "normalized": false,
      "special": true
    },
    {
      "id": 69,
      "content": "<unused_65>",
      "single_word": false,
      "lstrip": false,
      "rstrip": false,
      "normalized": false,
      "special": true
    },
    {
      "id": 70,
      "content": "<unused_66>",
      "single_word": false,
      "lstrip": false,
      "rstrip": false,
      "normalized": false,
      "special": true
    },
    {
      "id": 71,
      "content": "<unused_67>",
      "single_word": false,
      "lstrip": false,
      "rstrip": false,
      "normalized": false,
      "special": true
    },
    {
      "id": 72,
      "content": "<unused_68>",
      "single_word": false,
      "lstrip": false,
      "rstrip": false,
      "normalized": false,
      "special": true
    },
    {
      "id": 73,
      "content": "<unused_69>",
      "single_word": false,
      "lstrip": false,
      "rstrip": false,
      "normalized": false,
      "special": true
    },
    {
      "id": 74,
      "content": "<unused_70>",
      "single_word": false,
      "lstrip": false,
      "rstrip": false,
      "normalized": false,
      "special": true
    },
    {
      "id": 75,
      "content": "<unused_71>",
      "single_word": false,
      "lstrip": false,
      "rstrip": false,
      "normalized": false,
      "special": true
    },
    {
      "id": 76,
      "content": "<unused_72>",
      "single_word": false,
      "lstrip": false,
      "rstrip": false,
      "normalized": false,
      "special": true
    },
    {
      "id": 77,
      "content": "<unused_73>",
      "single_word": false,
      "lstrip": false,
      "rstrip": false,
      "normalized": false,
      "special": true
    },
    {
      "id": 78,
      "content": "<unused_74>",
      "single_word": false,
      "lstrip": false,
      "rstrip": false,
      "normalized": false,
      "special": true
    },
    {
      "id": 79,
      "content": "<unused_75>",
      "single_word": false,
      "lstrip": false,
      "rstrip": false,
      "normalized": false,
      "special": true
    },
    {
      "id": 80,
      "content": "<unused_76>",
      "single_word": false,
      "lstrip": false,
      "rstrip": false,
      "normalized": false,
      "special": true
    },
    {
      "id": 81,
      "content": "<unused_77>",
      "single_word": false,
      "lstrip": false,
      "rstrip": false,
      "normalized": false,
      "special": true
    },
    {
      "id": 82,
      "content": "<unused_78>",
      "single_word": false,
      "lstrip": false,
      "rstrip": false,
      "normalized": false,
      "special": true
    },
    {
      "id": 83,
      "content": "<unused_79>",
      "single_word": false,
      "lstrip": false,
      "rstrip": false,
      "normalized": false,
      "special": true
    },
    {
      "id": 84,
      "content": "<unused_80>",
      "single_word": false,
      "lstrip": false,
      "rstrip": false,
      "normalized": false,
      "special": true
    },
    {
      "id": 85,
      "content": "<unused_81>",
      "single_word": false,
      "lstrip": false,
      "rstrip": false,
      "normalized": false,
      "special": true
    },
    {
      "id": 86,
      "content": "<unused_82>",
      "single_word": false,
      "lstrip": false,
      "rstrip": false,
      "normalized": false,
      "special": true
    },
    {
      "id": 87,
      "content": "<unused_83>",
      "single_word": false,
      "lstrip": false,
      "rstrip": false,
      "normalized": false,
      "special": true
    },
    {
      "id": 88,
      "content": "<unused_84>",
      "single_word": false,
      "lstrip": false,
      "rstrip": false,
      "normalized": false,
      "special": true
    },
    {
      "id": 89,
      "content": "<unused_85>",
      "single_word": false,
      "lstrip": false,
      "rstrip": false,
      "normalized": false,
      "special": true
    },
    {
      "id": 90,
      "content": "<unused_86>",
      "single_word": false,
      "lstrip": false,
      "rstrip": false,
      "normalized": false,
      "special": true
    },
    {
      "id": 91,
      "content": "<unused_87>",
      "single_word": false,
      "lstrip": false,
      "rstrip": false,
      "normalized": false,
      "special": true
    },
    {
      "id": 92,
      "content": "<unused_88>",
      "single_word": false,
      "lstrip": false,
      "rstrip": false,
      "normalized": false,
      "special": true
    },
    {
      "id": 93,
      "content": "<unused_89>",
      "single_word": false,
      "lstrip": false,
      "rstrip": false,
      "normalized": false,
      "special": true
    },
    {
      "id": 94,
      "content": "<unused_90>",
      "single_word": false,
      "lstrip": false,
      "rstrip": false,
      "normalized": false,
      "special": true
    },
    {
      "id": 95,
      "content": "<unused_91>",
      "single_word": false,
      "lstrip": false,
      "rstrip": false,
      "normalized": false,
      "special": true
    },
    {
      "id": 96,
      "content": "<unused_92>",
      "single_word": false,
      "lstrip": false,
      "rstrip": false,
      "normalized": false,
      "special": true
    },
    {
      "id": 97,
      "content": "<unused_93>",
      "single_word": false,
      "lstrip": false,
      "rstrip": false,
      "normalized": false,
      "special": true
    },
    {
      "id": 98,
      "content": "<unused_94>",
      "single_word": false,
      "lstrip": false,
      "rstrip": false,
      "normalized": false,
      "special": true
    },
    {
      "id": 99,
      "content": "<unused_95>",
      "single_word": false,
      "lstrip": false,
      "rstrip": false,
      "normalized": false,
      "special": true
    },
    {
      "id": 100,
      "content": "<unused_96>",
      "single_word": false,
      "lstrip": false,
      "rstrip": false,
      "normalized": false,
      "special": true
    },
    {
      "id": 101,
      "content": "<unused_97>",
      "single_word": false,
      "lstrip": false,
      "rstrip": false,
      "normalized": false,
      "special": true
    },
    {
      "id": 102,
      "content": "<unused_98>",
      "single_word": false,
      "lstrip": false,
      "rstrip": false,
      "normalized": false,
      "special": true
    },
    {
      "id": 103,
      "content": "<unused_99>",
      "single_word": false,
      "lstrip": false,
      "rstrip": false,
      "normalized": false,
      "special": true
    }
  ],
  "normalizer": null,
  "pre_tokenizer": {
    "type": "ByteLevel",
    "add_prefix_space": false,
    "trim_offsets": true,
    "use_regex": true
  },
  "post_processor": {
    "type": "ByteLevel",
    "add_prefix_space": true,
    "trim_offsets": false,
    "use_regex": true
  },
  "decoder": {
    "type": "ByteLevel",
    "add_prefix_space": true,
    "trim_offsets": true,
    "use_regex": true
  },
  "model": {
    "type": "BPE",
    "dropout": null,
    "unk_token": null,
    "continuing_subword_prefix": null,
    "end_of_word_suffix": null,
    "fuse_unk": false,
    "byte_fallback": false,
    "vocab": {
      "<pad>": 0,
      "<s>": 1,
      "</s>": 2,
      "<unk>": 3,
      "<__NNP__>": 4,
      "<__written__>": 5,
      "<__spoken__>": 6,
      "<__patent__>": 7,
      "<__api_docs__>": 8,
      "<__formal__>": 9,
      "<__casual__>": 10,
      "<unused_7>": 11,
      "<unused_8>": 12,
      "<unused_9>": 13,
      "<unused_10>": 14,
      "<unused_11>": 15,
      "<unused_12>": 16,
      "<unused_13>": 17,
      "<unused_14>": 18,
      "<unused_15>": 19,
      "<unused_16>": 20,
      "<unused_17>": 21,
      "<unused_18>": 22,
      "<unused_19>": 23,
      "<unused_20>": 24,
      "<unused_21>": 25,
      "<unused_22>": 26,
      "<unused_23>": 27,
      "<unused_24>": 28,
      "<unused_25>": 29,
      "<unused_26>": 30,
      "<unused_27>": 31,
      "<unused_28>": 32,
      "<unused_29>": 33,
      "<unused_30>": 34,
      "<unused_31>": 35,
      "<unused_32>": 36,
      "<unused_33>": 37,
      "<unused_34>": 38,
      "<unused_35>": 39,
      "<unused_36>": 40,
      "<unused_37>": 41,
      "<unused_38>": 42,
      "<unused_39>": 43,
      "<unused_40>": 44,
      "<unused_41>": 45,
      "<unused_42>": 46,
      "<unused_43>": 47,
      "<unused_44>": 48,
      "<unused_45>": 49,
      "<unused_46>": 50,
      "<unused_47>": 51,
      "<unused_48>": 52,
      "<unused_49>": 53,
      "<unused_50>": 54,
      "<unused_51>": 55,
      "<unused_52>": 56,
      "<unused_53>": 57,
      "<unused_54>": 58,
      "<unused_55>": 59,
      "<unused_56>": 60,
      "<unused_57>": 61,
      "<unused_58>": 62,
      "<unused_59>": 63,
      "<unused_60>": 64,
      "<unused_61>": 65,
      "<unused_62>": 66,
      "<unused_63>": 67,
      "<unused_64>": 68,
      "<unused_65>": 69,
      "<unused_66>": 70,
      "<unused_67>": 71,
      "<unused_68>": 72,
      "<unused_69>": 73,
      "<unused_70>": 74,
      "<unused_71>": 75,
      "<unused_72>": 76,
      "<unused_73>": 77,
      "<unused_74>": 78,
      "<unused_75>": 79,
      "<unused_76>": 80,
      "<unused_77>": 81,
      "<unused_78>": 82,
      "<unused_79>": 83,
      "<unused_80>": 84,
      "<unused_81>": 85,
      "<unused_82>": 86,
      "<unused_83>": 87,
      "<unused_84>": 88,
      "<unused_85>": 89,
      "<unused_86>": 90,
      "<unused_87>": 91,
      "<unused_88>": 92,
      "<unused_89>": 93,
      "<unused_90>": 94,
      "<unused_91>": 95,
      "<unused_92>": 96,
      "<unused_93>": 97,
      "<unused_94>": 98,
      "<unused_95>": 99,
      "<unused_96>": 100,
      "<unused_97>": 101,
      "<unused_98>": 102,
      "<unused_99>": 103,
      "!": 104,
      "\"": 105,
      "#": 106,
      "$": 107,
      "%": 108,
      "&": 109,
      "'": 110,
      "(": 111,
      ")": 112,
      "*": 113,
      "+": 114,
      ",": 115,
      "-": 116,
      ".": 117,
      "/": 118,
      "0": 119,
      "1": 120,
      "2": 121,
      "3": 122,
      "4": 123,
      "5": 124,
      "6": 125,
      "7": 126,
      "8": 127,
      "9": 128,
      ":": 129,
      ";": 130,
      "<": 131,
      "=": 132,
      ">": 133,
      "?": 134,
      "@": 135,
      "A": 136,
      "B": 137,
      "C": 138,
      "D": 139,
      "E": 140,
      "F": 141,
      "G": 142,
      "H": 143,
      "I": 144,
      "J": 145,
      "K": 146,
      "L": 147,
      "M": 148,
      "N": 149,
      "O": 150,
      "P": 151,
      "Q": 152,
      "R": 153,
      "S": 154,
      "T": 155,
      "U": 156,
      "V": 157,
      "W": 158,
      "X": 159,
      "Y": 160,
      "Z": 161,
      "[": 162,
      "\\": 163,
      "]": 164,
      "^": 165,
      "_": 166,
      "`": 167,
      "a": 168,
      "b": 169,
      "c": 170,
      "d": 171,
      "e": 172,
      "f": 173,
      "g": 174,
      "h": 175,
      "i": 176,
      "j": 177,
      "k": 178,
      "l": 179,
      "m": 180,
      "n": 181,
      "o": 182,
      "p": 183,
      "q": 184,
      "r": 185,
      "s": 186,
      "t": 187,
      "u": 188,
      "v": 189,
      "w": 190,
      "x": 191,
      "y": 192,
      "z": 193,
      "{": 194,
      "|": 195,
      "}": 196,
      "~": 197,
      "¡": 198,
      "¢": 199,
      "£": 200,
      "¤": 201,
      "¥": 202,
      "¦": 203,
      "§": 204,
      "¨": 205,
      "©": 206,
      "ª": 207,
      "«": 208,
      "¬": 209,
      "®": 210,
      "¯": 211,
      "°": 212,
      "±": 213,
      "²": 214,
      "³": 215,
      "´": 216,
      "µ": 217,
      "¶": 218,
      "·": 219,
      "¸": 220,
      "¹": 221,
      "º": 222,
      "»": 223,
      "¼": 224,
      "½": 225,
      "¾": 226,
      "¿": 227,
      "À": 228,
      "Á": 229,
      "Â": 230,
      "Ã": 231,
      "Ä": 232,
      "Å": 233,
      "Æ": 234,
      "Ç": 235,
      "È": 236,
      "É": 237,
      "Ê": 238,
      "Ë": 239,
      "Ì": 240,
      "Í": 241,
      "Î": 242,
      "Ï": 243,
      "Ð": 244,
      "Ñ": 245,
      "Ò": 246,
      "Ó": 247,
      "Ô": 248,
      "Õ": 249,
      "Ö": 250,
      "×": 251,
      "Ø": 252,
      "Ù": 253,
      "Ú": 254,
      "Û": 255,
      "Ü": 256,
      "Ý": 257,
      "Þ": 258,
      "ß": 259,
      "à": 260,
      "á": 261,
      "â": 262,
      "ã": 263,
      "ä": 264,
      "å": 265,
      "æ": 266,
      "ç": 267,
      "è": 268,
      "é": 269,
      "ê": 270,
      "ë": 271,
      "ì": 272,
      "í": 273,
      "î": 274,
      "ï": 275,
      "ð": 276,
      "ñ": 277,
      "ò": 278,
      "ó": 279,
      "ô": 280,
      "õ": 281,
      "ö": 282,
      "÷": 283,
      "ø": 284,
      "ù": 285,
      "ú": 286,
      "û": 287,
      "ü": 288,
      "ý": 289,
      "þ": 290,
      "ÿ": 291,
      "Ā": 292,
      "ā": 293,
      "Ă": 294,
      "ă": 295,
      "Ą": 296,
      "ą": 297,
      "Ć": 298,
      "ć": 299,
      "Ĉ": 300,
      "ĉ": 301,
      "Ċ": 302,
      "ċ": 303,
      "Č": 304,
      "č": 305,
      "Ď": 306,
      "ď": 307,
      "Đ": 308,
      "đ": 309,
      "Ē": 310,
      "ē": 311,
      "Ĕ": 312,
      "ĕ": 313,
      "Ė": 314,
      "ė": 315,
      "Ę": 316,
      "ę": 317,
      "Ě": 318,
      "ě": 319,
      "Ĝ": 320,
      "ĝ": 321,
      "Ğ": 322,
      "ğ": 323,
      "Ġ": 324,
      "ġ": 325,
      "Ģ": 326,
      "ģ": 327,
      "Ĥ": 328,
      "ĥ": 329,
      "Ħ": 330,
      "ħ": 331,
      "Ĩ": 332,
      "ĩ": 333,
      "Ī": 334,
      "ī": 335,
      "Ĭ": 336,
      "ĭ": 337,
      "Į": 338,
      "į": 339,
      "İ": 340,
      "ı": 341,
      "Ĳ": 342,
      "ĳ": 343,
      "Ĵ": 344,
      "ĵ": 345,
      "Ķ": 346,
      "ķ": 347,
      "ĸ": 348,
      "Ĺ": 349,
      "ĺ": 350,
      "Ļ": 351,
      "ļ": 352,
      "Ľ": 353,
      "ľ": 354,
      "Ŀ": 355,
      "ŀ": 356,
      "Ł": 357,
      "ł": 358,
      "Ń": 359,
      "Ġì": 360,
      "ìĿ": 361,
      "Ġë": 362,
      "Ġt": 363,
      "íķ": 364,
      "Ġa": 365,
      "he": 366,
      "in": 367,
      "Ġê": 368,
      "re": 369,
      "on": 370,
      "ëĭ": 371,
      "Ġthe": 372,
      "ìĹ": 373,
      "at": 374,
      "Ġs": 375,
      "er": 376,
      "Ġo": 377,
      "ëĭ¤": 378,
      "ìĿ´": 379,
      "Ġc": 380,
      "ëĬ": 381,
      "en": 382,
      "Ġw": 383,
      "Ġí": 384,
      "ëĬĶ": 385,
      "ê³": 386,
      "ìĹĲ": 387,
      "it": 388,
      "is": 389,
      "an": 390,
      "ìĦ": 391,
      "ed": 392,
      "Ġp": 393,
      "or": 394,
      "ìł": 395,
      "ou": 396,
      "ê°": 397,
      "es": 398,
      "al": 399,
      "íķĺ": 400,
      "Ġb": 401,
      "Ġof": 402,
      "Ġf": 403,
      "Ġm": 404,
      "ing": 405,
      "ìĿĺ": 406,
      "ìĿĦ": 407,
      "Ġan": 408,
      "Ġin": 409,
      "ion": 410,
      "ìļ": 411,
      "Ġd": 412,
      "ì§": 413,
      "Ġìŀ": 414,
      "ë¡": 415,
      "ic": 416,
      "Ġto": 417,
      "ìŀ": 418,
      "íķľ": 419,
      "ar": 420,
      "ë¥": 421,
      "as": 422,
      "ìķ": 423,
      "Ġand": 424,
      "ë¡ľ": 425,
      "ĠìĿ": 426,
      "Ġìł": 427,
      "ê°Ģ": 428,
      "ìĭ": 429,
      "Īëĭ¤": 430,
      "ro": 431,
      "¸°": 432,
      "le": 433,
      "ê³ł": 434,
      "ìľ": 435,
      "ct": 436,
      "Ġth": 437,
      "ent": 438,
      "ì§Ģ": 439,
      "ìĿĢ": 440,
      "Ġh": 441,
      "ë¦": 442,
      "ë¥¼": 443,
      "ëı": 444,
      "ê²": 445,
      "ìĦľ": 446,
      "Ĥ¬": 447,
      "Ġê°": 448,
      "Īĺ": 449,
      "ìĸ": 450,
      "Ġre": 451,
      "Ġë°": 452,
      "Ġìķ": 453,
      "Ġe": 454,
      "Ġê²": 455,
      "ëĵ": 456,
      "ve": 457,
      "ìĬ": 458,
      "ê¸°": 459,
      "om": 460,
      "us": 461,
      "Ġn": 462,
      "íķ´": 463,
      "Ġl": 464,
      "ation": 465,
      "·¸": 466,
      "ll": 467,
      "ëĤ": 468,
      "êµ": 469,
      "ĮĢ": 470,
      "et": 471,
      "ë¦¬": 472,
      "Ġg": 473,
      "ìĸ´": 474,
      "Ġis": 475,
      "ìļĶ": 476,
      "ëıĦ": 477,
      "ĠìĹ": 478,
      "Ġy": 479,
      "ìľ¼": 480,
      "ëĲ": 481,
      "ë§": 482,
      "ëł": 483,
      "Ġìĭ": 484,
      "Ġbe": 485,
      "ĠìĪĺ": 486,
      "id": 487,
      "im": 488,
      "ly": 489,
      "ĠìĿ´": 490,
      "ut": 491,
      "ce": 492,
      "Ġyou": 493,
      "Ġë§": 494,
      "ìĥ": 495,
      "ot": 496,
      "st": 497,
      "ë¶": 498,
      "ìĹĲìĦľ": 499,
      "ig": 500,
      "ê³¼": 501,
      "ĠëĤ": 502,
      "ë³": 503,
      "ow": 504,
      "ĠI": 505,
      "Ġfor": 506,
      "ĠìŀĪ": 507,
      "ìĺ": 508,
      "ay": 509,
      "ìĿ¸": 510,
      "The": 511,
      "ë©": 512,
      "Ġon": 513,
      "ìŀĲ": 514,
      "ĠìĦ": 515,
      "ìľ¼ë¡ľ": 516,
      "ë°": 517,
      "Ġì§": 518,
      "ìĭľ": 519,
      "Ġë³": 520,
      "íĸ": 521,
      "ur": 522,
      "Ġ1": 523,
      "Ġthat": 524,
      "Ġst": 525,
      "ol": 526,
      "ch": 527,
      "Ġìľ": 528,
      "ìłģ": 529,
      "Ġëĭ": 530,
      "ë¬": 531,
      "ëĿ": 532,
      "ëĭĪëĭ¤": 533,
      "ìĦ±": 534,
      "ĠS": 535,
      "Ġê³": 536,
      "un": 537,
      "ìĬ¤": 538,
      "ëĵ¤": 539,
      "ĠìĤ¬": 540,
      "ëŁ": 541,
      "íĻ": 542,
      "ver": 543,
      "ëĿ¼": 544,
      "ëŀ": 545,
      "Ġcon": 546,
      "ìłķ": 547,
      "ìķĦ": 548,
      "am": 549,
      "ìĽ": 550,
      "ìĤ¬": 551,
      "Ġìĥ": 552,
      "ĠëĮĢ": 553,
      "ê²Į": 554,
      "£¼": 555,
      "Ġpro": 556,
      "ìļ©": 557,
      "ĠC": 558,
      "Ġë¶": 559,
      "Ġit": 560,
      "ëĤĺ": 561,
      "il": 562,
      "ul": 563,
      "Ġìĺ": 564,
      "Ġwe": 565,
      "ith": 566,
      "ad": 567,
      "íĺ": 568,
      "ir": 569,
      "ment": 570,
      "ĠA": 571,
      "Ġê·¸": 572,
      "ìĨ": 573,
      "Ġíķ": 574,
      "ì²": 575,
      "if": 576,
      "se": 577,
      "'s": 578,
      "ìĻ": 579,
      "od": 580,
      "ê·¸": 581,
      "Ġwith": 582,
      "Ġëª": 583,
      "ì¹": 584,
      "Ġas": 585,
      "Ġê°Ģ": 586,
      "ter": 587,
      "Ġ2": 588,
      "Ġê²ĥ": 589,
      "ìĥģ": 590,
      "ìłľ": 591,
      "Ġwas": 592,
      "´Ģ": 593,
      "ë©´": 594,
      "Ġê¸°": 595,
      "êµ¬": 596,
      "±°": 597,
      "íķĺëĬĶ": 598,
      "Ġhe": 599,
      "ìŀ¥": 600,
      "Ġëı": 601,
      "ë²": 602,
      "Ġêµ": 603,
      "ìĹ¬": 604,
      "ge": 605,
      "ë¶Ģ": 606,
      "ore": 607,
      "¹Ħ": 608,
      "Ġìłľ": 609,
      "ect": 610,
      "ĠìŀĪëĭ¤": 611,
      "¡°": 612,
      "Ġde": 613,
      "Ġwh": 614,
      "ëª": 615,
      "íĥ": 616,
      "Ġare": 617,
      "ate": 618,
      "ra": 619,
      "ëį": 620,
      "íķł": 621,
      "Ġcom": 622,
      "Ġex": 623,
      "ure": 624,
      "ity": 625,
      "ĠíĻ": 626,
      "ëĮĢ": 627,
      "Ġìĸ": 628,
      "ëĲĺ": 629,
      "Ġì§Ģ": 630,
      "ìķ¼": 631,
      "íĬ": 632,
      "ri": 633,
      "íĻĶ": 634,
      "¤ĳ": 635,
      "ĠìłĦ": 636,
      "Ġë³´": 637,
      "ìĻĢ": 638,
      "ìĪĺ": 639,
      "Ġse": 640,
      "Ġìļ": 641,
      "pp": 642,
      "ĠM": 643,
      "Ġv": 644,
      "Ġìĭľ": 645,
      "th": 646,
      "ĠìķĦ": 647,
      "est": 648,
      "um": 649,
      "ive": 650,
      "ĠP": 651,
      "ld": 652,
      "os": 653,
      "ëĲľ": 654,
      "¯¸": 655,
      "ess": 656,
      "ìĿ¼": 657,
      "Ġme": 658,
      "íĦ": 659,
      "op": 660,
      "ĠìľĦ": 661,
      "ill": 662,
      "ant": 663,
      "ab": 664,
      "ëħ": 665,
      "ë§Į": 666,
      "Ġr": 667,
      "ist": 668,
      "ìłĦ": 669,
      "ud": 670,
      "ìĽĲ": 671,
      "ìĬµ": 672,
      "her": 673,
      "ke": 674,
      "Ġha": 675,
      "Ġby": 676,
      "00": 677,
      "Ġë¬": 678,
      "ì¹ĺ": 679,
      "Ġìłķ": 680,
      "igh": 681,
      "íĬ¸": 682,
      "Ġsu": 683,
      "ëĭĪ": 684,
      "íķĺê³ł": 685,
      "oun": 686,
      "Ġat": 687,
      "Ġus": 688,
      "Ġëĭ¤": 689,
      "ë³´": 690,
      "ê¸": 691,
      "íĦ°": 692,
      "ìĨĮ": 693,
      "qu": 694,
      "ìļ°": 695,
      "ac": 696,
      "ers": 697,
      "Ġíĺ": 698,
      "oc": 699,
      "Ġëĵ": 700,
      "ëŁ¬": 701,
      "Ġor": 702,
      "Ġthis": 703,
      "Ġsh": 704,
      "ì£¼": 705,
      "ìĭł": 706,
      "Ĥ°": 707,
      "ĠD": 708,
      "ĠëĤĺ": 709,
      "em": 710,
      "ĠìĹ°": 711,
      "ĠB": 712,
      "rom": 713,
      "ì¶": 714,
      "ì°": 715,
      "Ġne": 716,
      "ain": 717,
      "ong": 718,
      "ëĦ": 719,
      "ĠìĨ": 720,
      "res": 721,
      "ê³Ħ": 722,
      "Ġcan": 723,
      "Ġnot": 724,
      "ëıĻ": 725,
      "..": 726,
      "ĠT": 727,
      "Ġìľł": 728,
      "ìĬµëĭĪëĭ¤": 729,
      "Ġíķľ": 730,
      "ies": 731,
      "ë£": 732,
      "iv": 733,
      "Ġê´Ģ": 734,
      "ort": 735,
      "Ĩµ": 736,
      "Ġíķĺ": 737,
      "ust": 738,
      "Ġì£¼": 739,
      "ëĵľ": 740,
      "ê°Ħ": 741,
      "Ġê²½": 742,
      "Ġhave": 743,
      "Ġìĥģ": 744,
      "ated": 745,
      "ļĮ": 746,
      "ìĺĢ": 747,
      "Ġch": 748,
      "ial": 749,
      "ĠK": 750,
      "ĠìŀĲ": 751,
      "Ġì¤ĳ": 752,
      "êµŃ": 753,
      "art": 754,
      "Ġëª¨": 755,
      "ĠH": 756,
      "Ġëį": 757,
      "Ġì°": 758,
      "íķĺìĹ¬": 759,
      "Ġfrom": 760,
      "and": 761,
      "act": 762,
      "Ġíı": 763,
      "Ġcomp": 764,
      "Ġ3": 765,
      "ì²´": 766,
      "íķĻ": 767,
      "íĶ": 768,
      "ìĦ¸": 769,
      "ê¹": 770,
      "'t": 771,
      "ĠìĿ¸": 772,
      "ĠìĿ¼": 773,
      "ë¬¸": 774,
      "Ġë°ı": 775,
      "ult": 776,
      "ren": 777,
      "per": 778,
      "ĠìķĬ": 779,
      "ight": 780,
      "age": 781,
      "ĠG": 782,
      "du": 783,
      "íķ©": 784,
      "Ġle": 785,
      "ĠE": 786,
      "Ġal": 787,
      "Ġì¶": 788,
      "Ġk": 789,
      "ĠëĤ´": 790,
      "ë¶Ħ": 791,
      "iz": 792,
      "ê±°": 793,
      "el": 794,
      "ê·": 795,
      "ìĤ°": 796,
      "ĠF": 797,
      "±´": 798,
      "ìĿ´ëĭ¤": 799,
      "Ġê±°": 800,
      "red": 801,
      "Ġun": 802,
      "ìĹħ": 803,
      "ff": 804,
      "Ġres": 805,
      "ëł¤": 806,
      "ĠN": 807,
      "end": 808,
      "ì¡°": 809,
      "ice": 810,
      "ìķĪ": 811,
      "Ġwere": 812,
      "Ġë¶Ħ": 813,
      "ë¹Ħ": 814,
      "ase": 815,
      "íı": 816,
      "ĠëĲ": 817,
      "orm": 818,
      "Ġì²": 819,
      "Ġgo": 820,
      "íĸī": 821,
      "Ġë¹Ħ": 822,
      "pe": 823,
      "ĠìĥĿ": 824,
      "og": 825,
      "In": 826,
      "Ġë²": 827,
      "pt": 828,
      "ical": 829,
      "ould": 830,
      "Ġcont": 831,
      "ìĹĪëĭ¤": 832,
      "Ġë¶Ģ": 833,
      "ë¬¼": 834,
      "ĠR": 835,
      "Ġab": 836,
      "Ġêµ¬": 837,
      "ĠëĶ": 838,
      "ĠìĿĺ": 839,
      "Ġíķ´": 840,
      "ine": 841,
      "ìĭĿ": 842,
      "Ġì¢": 843,
      "ëĤ´": 844,
      "ëį°": 845,
      "Ġì¡°": 846,
      "ĠìŀĪëĬĶ": 847,
      "Ġdo": 848,
      "ĠìĹĨ": 849,
      "ĠíĮ": 850,
      "íĸĪëĭ¤": 851,
      "Th": 852,
      "all": 853,
      "ìĥĿ": 854,
      "ëªħ": 855,
      "ê³µ": 856,
      "¦Ŀ": 857,
      "íħ": 858,
      "Ġinc": 859,
      "gh": 860,
      "ĠíĶ": 861,
      "ëł¥": 862,
      "ê¹Į": 863,
      "ì§Ħ": 864,
      "Ġim": 865,
      "Ġìĸ´": 866,
      "ìĹĪ": 867,
      "ĠL": 868,
      "Ġ(": 869,
      "ķĮ": 870,
      "ëŀĺ": 871,
      "ë©°": 872,
      "Ġë°©": 873,
      "pl": 874,
      "ê´Ģ": 875,
      "Ġpl": 876,
      "cc": 877,
      "out": 878,
      "Ġê³µ": 879,
      "âĢ": 880,
      "ìŀħ": 881,
      "ë¬´": 882,
      "Ġë°ľ": 883,
      "Ġ\"": 884,
      "íĮ": 885,
      "ë¯¸": 886,
      "ë²ķ": 887,
      "It": 888,
      "Ġê²°": 889,
      "Ġ-": 890,
      "ìĺĢëĭ¤": 891,
      "ie": 892,
      "íķľëĭ¤": 893,
      "ance": 894,
      "ry": 895,
      "ìĭ¤": 896,
      "ction": 897,
      "ome": 898,
      "form": 899,
      "Ġj": 900,
      "ous": 901,
      "Ġint": 902,
      "Ġê³ł": 903,
      "êµĲ": 904,
      "Ġwill": 905,
      "ĠìĨĮ": 906,
      "ĠìĹ¬": 907,
      "ëĭ¨": 908,
      "Ġìĺģ": 909,
      "ĠìĤ¬ìļ©": 910,
      "ast": 911,
      "ition": 912,
      "Ġê°ľ": 913,
      "ë§Ī": 914,
      "Ġad": 915,
      "ĽĦ": 916,
      "ëħĦ": 917,
      "ĠìĻ": 918,
      "Ġmay": 919,
      "Ġwhe": 920,
      "ëĭ¹": 921,
      "Ġhas": 922,
      "íļĮ": 923,
      "You": 924,
      "ģ¬": 925,
      "ang": 926,
      "ough": 927,
      "ĳľ": 928,
      "ide": 929,
      "ĠW": 930,
      "Ġë§Ĳ": 931,
      "Ġíĸ": 932,
      "ĠëĦ": 933,
      "ê²½": 934,
      "ok": 935,
      "ìľĦ": 936,
      "ê°ģ": 937,
      "ign": 938,
      "Ġì¹": 939,
      "ìĦĿ": 940,
      "ĠëĮĢíķľ": 941,
      "ìľł": 942,
      "ans": 943,
      "íŀ": 944,
      "ĠëķĮ": 945,
      "ĠíĨµ": 946,
      "ich": 947,
      "ĠëıĻ": 948,
      "ì¡": 949,
      "ell": 950,
      "ip": 951,
      "ĳĲ": 952,
      "ĠëĨ": 953,
      "ëĬ¥": 954,
      "ard": 955,
      "Ġë¯¸": 956,
      "Ġwor": 957,
      "ìŀ¬": 958,
      "Ġìĭ¤": 959,
      "ag": 960,
      "ĠU": 961,
      "ìĦł": 962,
      "Ġyour": 963,
      "ĠìķĪ": 964,
      "íĥĢ": 965,
      "Ġdis": 966,
      "our": 967,
      "ĠìķĮ": 968,
      "ë¥¸": 969,
      "up": 970,
      "ear": 971,
      "ê°ľ": 972,
      "der": 973,
      "Ġê·": 974,
      "ime": 975,
      "Ġ5": 976,
      "ĠJ": 977,
      "ìĹŃ": 978,
      "Ġper": 979,
      "Ġ4": 980,
      "ìĿĮ": 981,
      "ib": 982,
      "Ġëĵ±": 983,
      "ìĺ¤": 984,
      "Ġìļ°": 985,
      "íĹ": 986,
      "ìķĺ": 987,
      "ĠëıĦ": 988,
      "ĠìĽ": 989,
      "ìĸ´ìļĶ": 990,
      "íŀĪ": 991,
      "íĺ¸": 992,
      "ĠìĹ°êµ¬": 993,
      "ìĪ": 994,
      "ìłģìľ¼ë¡ľ": 995,
      "ĠìĬ": 996,
      "Ġso": 997,
      "Ġtr": 998,
      "ther": 999,
      "íĺķ": 1000,
      "ê¸Ī": 1001,
      "ìĸĳ": 1002,
      "vel": 1003,
      "ì¤": 1004,
      "ë£Į": 1005,
      "ue": 1006,
      "ìłģìĿ¸": 1007,
      "ì§Ī": 1008,
      "ĠíĬ": 1009,
      "Ġapp": 1010,
      "Ġout": 1011,
      "ìĹ°": 1012,
      "Ġall": 1013,
      "Ġcl": 1014,
      "ì¶ľ": 1015,
      "ost": 1016,
      "Ġë§Ī": 1017,
      "ëĦ¤": 1018,
      "Ġen": 1019,
      "ak": 1020,
      "Ġwhich": 1021,
      "Ġê°Ļ": 1022,
      "ents": 1023,
      "Ġkn": 1024,
      "Ġbut": 1025,
      "ĠìĦł": 1026,
      "ë¥´": 1027,
      "ound": 1028,
      "ĠëĶ°": 1029,
      "ĺĲ": 1030,
      "ĠìĦ¸": 1031,
      "ëĶ": 1032,
      "one": 1033,
      "ĴĪ": 1034,
      "µľ": 1035,
      "Ġìĺ¤": 1036,
      "ations": 1037,
      "íķĺì§Ģ": 1038,
      "Ġëħ": 1039,
      "íĸĪ": 1040,
      "Ġë°Ķ": 1041,
      "ë¡Ŀ": 1042,
      "ary": 1043,
      "so": 1044,
      "ĠO": 1045,
      "ê±´": 1046,
      "ens": 1047,
      "able": 1048,
      "Ġmy": 1049,
      "ap": 1050,
      "Ġli": 1051,
      "íķĺìĺĢëĭ¤": 1052,
      "ëĵ¤ìĿ´": 1053,
      "ìļ´": 1054,
      "ame": 1055,
      "Ġman": 1056,
      "Ġê°Ĳ": 1057,
      "ëŀĮ": 1058,
      "Ġìĭł": 1059,
      "ë°ĺ": 1060,
      "ding": 1061,
      "ĠìłĢ": 1062,
      "ĠíĻķ": 1063,
      "ë°©": 1064,
      "ence": 1065,
      "ëłĪ": 1066,
      "Ġìłģ": 1067,
      "Ġknow": 1068,
      "Ġstud": 1069,
      "ìłĢ": 1070,
      "ì£": 1071,
      "ë³¸": 1072,
      "AA": 1073,
      "ĠìĦľ": 1074,
      "ê²ł": 1075,
      "Ġthere": 1076,
      "ĠKore": 1077,
      "íĸ¥": 1078,
      "Ġíĥ": 1079,
      "íķĺê¸°": 1080,
      "ìħ": 1081,
      "íķ¨": 1082,
      "lect": 1083,
      "port": 1084,
      "ë°ľ": 1085,
      "Ġê¸": 1086,
      "Ġëĭ¨": 1087,
      "ally": 1088,
      "íĹĺ": 1089,
      "íı¬": 1090,
      "ëª¨": 1091,
      "Ġë¬¸": 1092,
      "ake": 1093,
      "Ġë§Į": 1094,
      "...": 1095,
      "Ġabout": 1096,
      "ru": 1097,
      "Ġtime": 1098,
      "con": 1099,
      "Ġpre": 1100,
      "ount": 1101,
      "ìĨį": 1102,
      "ì¤ĳ": 1103,
      "'m": 1104,
      "íĴĪ": 1105,
      "ack": 1106,
      "aus": 1107,
      "ose": 1108,
      "ļ¨": 1109,
      "ì¢": 1110,
      "Ġ20": 1111,
      "ĠëįĶ": 1112,
      "ĠìĦ±": 1113,
      "Ġbeen": 1114,
      "Ġíı¬": 1115,
      "íģ¬": 1116,
      "yst": 1117,
      "ëŁī": 1118,
      "ach": 1119,
      "Ġìŀ¥": 1120,
      "ĠìĦ¤": 1121,
      "ëĤľ": 1122,
      "ep": 1123,
      "Ġë©": 1124,
      "ĠìľĦíķ´": 1125,
      "ìĹĲê²Į": 1126,
      "ace": 1127,
      "ire": 1128,
      "Ġte": 1129,
      "ëĵł": 1130,
      "Ġone": 1131,
      "ased": 1132,
      "Ġsa": 1133,
      "Ġar": 1134,
      "fe": 1135,
      "very": 1136,
      "ì°¨": 1137,
      "ress": 1138,
      "erv": 1139,
      "ìĺģ": 1140,
      "ook": 1141,
      "Ġì¶Ķ": 1142,
      "Ġag": 1143,
      "Ġë¬´": 1144,
      "eth": 1145,
      "Ġlike": 1146,
      "ëĵ¤ìĿĢ": 1147,
      "ĠIn": 1148,
      "ĠíķĦ": 1149,
      "ĠìĺĪ": 1150,
      "Ġë°°": 1151,
      "ber": 1152,
      "Ġì´": 1153,
      "ĠĠ": 1154,
      "ĠíĬ¹": 1155,
      "Ĩł": 1156,
      "ìŀĳ": 1157,
      "ific": 1158,
      "Ġup": 1159,
      "We": 1160,
      "Ġ'": 1161,
      "Ġë³Ģ": 1162,
      "ĠìĬ¤": 1163,
      "ìĭ¬": 1164,
      "Ġev": 1165,
      "ass": 1166,
      "This": 1167,
      "Ġpart": 1168,
      "Ġacc": 1169,
      "te": 1170,
      "Wh": 1171,
      "Ġê³Ħ": 1172,
      "Ġwho": 1173,
      "ystem": 1174,
      "íİ": 1175,
      "Ġalso": 1176,
      "ê²°": 1177,
      "ater": 1178,
      "íķĺê²Į": 1179,
      "Ġëį°": 1180,
      "ì¸": 1181,
      "ia": 1182,
      "rent": 1183,
      "ys": 1184,
      "ink": 1185,
      "Ġì§Ħ": 1186,
      "Ġthan": 1187,
      "He": 1188,
      "Ġam": 1189,
      "Ġmore": 1190,
      "ê²ĥ": 1191,
      "Ġìµľ": 1192,
      "ĠCh": 1193,
      "Ġì¦Ŀ": 1194,
      "are": 1195,
      "ions": 1196,
      "ree": 1197,
      "lic": 1198,
      "íķ©ëĭĪëĭ¤": 1199,
      "Ġsc": 1200,
      "ìłĲ": 1201,
      "ìĪł": 1202,
      "ĠëĲĺ": 1203,
      "Ġ6": 1204,
      "ì£ł": 1205,
      "Ġë§İ": 1206,
      "ëĿ¼ê³ł": 1207,
      "íĭ": 1208,
      "cess": 1209,
      "ì¤Ģ": 1210,
      "¯¼": 1211,
      "ĠìļĶ": 1212,
      "íĨµ": 1213,
      "ub": 1214,
      "etw": 1215,
      "ìĹĲëĬĶ": 1216,
      "uc": 1217,
      "duct": 1218,
      "ĠìĽĲ": 1219,
      "irst": 1220,
      "ĠëĺĲ": 1221,
      "íĤ": 1222,
      "Ġë°ĺ": 1223,
      "Ġact": 1224,
      "fter": 1225,
      "ind": 1226,
      "Ġëĭ¹": 1227,
      "ffect": 1228,
      "ĠìĤ¬ëŀĮ": 1229,
      "Ġgr": 1230,
      "Ġind": 1231,
      "Ġê²½ìļ°": 1232,
      "An": 1233,
      "ĠêµĲ": 1234,
      "ile": 1235,
      "ĠêµŃ": 1236,
      "Ġsp": 1237,
      "ìŀħëĭĪëĭ¤": 1238,
      "Ġem": 1239,
      "ob": 1240,
      "Ġ10": 1241,
      "ious": 1242,
      "ì§ģ": 1243,
      "Ġì°¨": 1244,
      "Ġdif": 1245,
      "íĶĦ": 1246,
      "Ġíķł": 1247,
      "Ġthey": 1248,
      "Ġqu": 1249,
      "ë¥ĺ": 1250,
      "ĠìĤ": 1251,
      "ark": 1252,
      "½Ķ": 1253,
      "ì§Ģë§Į": 1254,
      "ĠSt": 1255,
      "Ġrec": 1256,
      "rough": 1257,
      "ause": 1258,
      "reat": 1259,
      "Ġexp": 1260,
      "Ġbec": 1261,
      "ors": 1262,
      "Ġyear": 1263,
      "Ġreg": 1264,
      "Ġìŀ¬": 1265,
      "ood": 1266,
      "ĠìŀĪìĬµëĭĪëĭ¤": 1267,
      "íħĮ": 1268,
      "ĠíĽĦ": 1269,
      "íĥľ": 1270,
      "Ġdon": 1271,
      "Ġwhen": 1272,
      "Ġro": 1273,
      "Ġì¤": 1274,
      "ì¦Ŀ": 1275,
      "ory": 1276,
      "ìĺĪ": 1277,
      "'re": 1278,
      "íĺĦ": 1279,
      "Ġpe": 1280,
      "lud": 1281,
      "Ġë§¤": 1282,
      "ìĹĲìĦľëĬĶ": 1283,
      "Ġother": 1284,
      "Ġì¢ĭ": 1285,
      "Ġrel": 1286,
      "Ġno": 1287,
      "Ġê²ĥìľ¼ë¡ľ": 1288,
      "Ġspe": 1289,
      "Ġê±´": 1290,
      "ĠëĤĺíĥĢ": 1291,
      "ric": 1292,
      "ìľ¼ë©°": 1293,
      "ĠíĶĦ": 1294,
      "êµ°": 1295,
      "erm": 1296,
      "Ġwork": 1297,
      "ational": 1298,
      "ëĶĶ": 1299,
      "Ġif": 1300,
      "vers": 1301,
      "¶Į": 1302,
      "ëĳĲ": 1303,
      "ìŀĦ": 1304,
      "Ġco": 1305,
      "ëł¨": 1306,
      "Ġë¶Ī": 1307,
      "Ġinv": 1308,
      "Ġcons": 1309,
      "ph": 1310,
      "Ġfirst": 1311,
      "Ġìļ°ë¦¬": 1312,
      "íĳľ": 1313,
      "ĠíķĦìļĶ": 1314,
      "ĠíĻľ": 1315,
      "Ġjust": 1316,
      "ced": 1317,
      "Ġìŀħ": 1318,
      "ata": 1319,
      "ative": 1320,
      "ì¢ħ": 1321,
      "Ġíķľëĭ¤": 1322,
      "Ġsystem": 1323,
      "ĠìĿ´ìļ©": 1324,
      "ĠìķĦëĭĪ": 1325,
      "Ġget": 1326,
      "ĠíļĮ": 1327,
      "ied": 1328,
      "olog": 1329,
      "ĠíĻĺ": 1330,
      "ject": 1331,
      "Ġshow": 1332,
      "ìķ½": 1333,
      "Ġwhat": 1334,
      "Ġìŀĳ": 1335,
      "ì´": 1336,
      "10": 1337,
      "tern": 1338,
      "Ġíĳľ": 1339,
      "ĠY": 1340,
      "Ġë¶ĦìĦĿ": 1341,
      "Ġright": 1342,
      "´ĳ": 1343,
      "Ġê²°ê³¼": 1344,
      "Ġgen": 1345,
      "ë¶ĢíĦ°": 1346,
      "ite": 1347,
      "ĠëĨĴ": 1348,
      "ëįĺ": 1349,
      "Ġover": 1350,
      "Ġoff": 1351,
      "ë£¨": 1352,
      "ĠíĮĮ": 1353,
      "Ġfe": 1354,
      "ĠìľĦíķľ": 1355,
      "Ġwant": 1356,
      "Ġsuch": 1357,
      "ê²©": 1358,
      "ë§Ĳ": 1359,
      "±¸": 1360,
      "wo": 1361,
      "ë³Ħ": 1362,
      "ë¦°": 1363,
      "Ġimp": 1364,
      "ility": 1365,
      "ëĸ": 1366,
      "Ġthrough": 1367,
      "ê¹Įì§Ģ": 1368,
      "Ġresult": 1369,
      "ëĲĺëĬĶ": 1370,
      "Ġë°Ľ": 1371,
      "íĽĦ": 1372,
      "ëĲł": 1373,
      "ating": 1374,
      "ĠíĺĦ": 1375,
      "Ġëĵ¤": 1376,
      "ì²Ń": 1377,
      "int": 1378,
      "Ġ7": 1379,
      "Ġíıī": 1380,
      "íĿ": 1381,
      "Ġê²Ģ": 1382,
      "Ġsub": 1383,
      "íĻĺ": 1384,
      "ìĦ±ìĿĦ": 1385,
      "ays": 1386,
      "Ġtrans": 1387,
      "ove": 1388,
      "Ġë¹": 1389,
      "Ġdet": 1390,
      "av": 1391,
      "Ġtheir": 1392,
      "ì¦": 1393,
      "hen": 1394,
      "Ġneed": 1395,
      "Ġdid": 1396,
      "ail": 1397,
      "ung": 1398,
      "Ġinclud": 1399,
      "ë²Ħ": 1400,
      "Ġê³¼": 1401,
      "ĠëĮĢíķ´": 1402,
      "ìĽĶ": 1403,
      "ople": 1404,
      "ĠíķĻ": 1405,
      "row": 1406,
      "ual": 1407,
      "Ġcomm": 1408,
      "ĠV": 1409,
      "ê¸ī": 1410,
      "velop": 1411,
      "ë¦¬ê³ł": 1412,
      "ëĲľëĭ¤": 1413,
      "enc": 1414,
      "Ġdes": 1415,
      "ates": 1416,
      "Ġê°ķ": 1417,
      "ì²ĺ": 1418,
      "Ġíĺķ": 1419,
      "Ġê°Ħ": 1420,
      "ëĥ": 1421,
      "Ġob": 1422,
      "Ġmod": 1423,
      "Ġíļ¨": 1424,
      "íĨł": 1425,
      "íķĺëĭ¤": 1426,
      "formation": 1427,
      "Ġafter": 1428,
      "Ġpat": 1429,
      "ë¸": 1430,
      "ĠKorea": 1431,
      "ye": 1432,
      "ëŁ°": 1433,
      "ê°Ĳ": 1434,
      "20": 1435,
      "Ġhad": 1436,
      "Ġany": 1437,
      "een": 1438,
      "ĠëĳĲ": 1439,
      "Ġanal": 1440,
      "Ġac": 1441,
      "Ġê²ĥìĿ´": 1442,
      "Ġpres": 1443,
      "ìľ¨": 1444,
      "ë¯¼": 1445,
      "ìĦ¸ìļĶ": 1446,
      "ì¼": 1447,
      "Ġprov": 1448,
      "Ġusing": 1449,
      "Ġíİ": 1450,
      "ĠìŀĪìĸ´": 1451,
      "íĮĮ": 1452,
      "Ġpo": 1453,
      "Ġnew": 1454,
      "Ġincre": 1455,
      "Ġunder": 1456,
      "Ġsign": 1457,
      "dition": 1458,
      "ìľ¡": 1459,
      "ê·¼": 1460,
      "ities": 1461,
      "Ġëħ¸": 1462,
      "Ġsome": 1463,
      "Ġwould": 1464,
      "Ġour": 1465,
      "ĠSe": 1466,
      "ning": 1467,
      "Ġhis": 1468,
      "ìĽĮ": 1469,
      "Ī¬": 1470,
      "Ġíģ": 1471,
      "ĠìĥĿê°ģ": 1472,
      "Ġpos": 1473,
      "ĢìĿ´": 1474,
      "Ġstudy": 1475,
      "Ġëĭ¤ë¥¸": 1476,
      "Ġë¬¼": 1477,
      "ics": 1478,
      "Ġ8": 1479,
      "±ħ": 1480,
      "rib": 1481,
      "etween": 1482,
      "Ġused": 1483,
      "ëĲĺìĹĪëĭ¤": 1484,
      "Ġfl": 1485,
      "cial": 1486,
      "Ġíı¬íķ¨": 1487,
      "Ġpeople": 1488,
      "Ġíķ¨": 1489,
      "oup": 1490,
      "Ġthink": 1491,
      "ĠëĶ°ëĿ¼": 1492,
      "Ġbetween": 1493,
      "Ġvar": 1494,
      "ìĿ´íĦ°": 1495,
      "ĠUn": 1496,
      "ish": 1497,
      "ade": 1498,
      "Ġê°ĢëĬ¥": 1499,
      "ê»": 1500,
      "ìļ°ë¦¬": 1501,
      "Ġcol": 1502,
      "Ġê²ĥìĿ´ëĭ¤": 1503,
      "Ġsaid": 1504,
      "ë¦½": 1505,
      "hed": 1506,
      "íĤ¤": 1507,
      "ëĦĪ": 1508,
      "ëĵ¤ìĿĦ": 1509,
      "Ġdiffe": 1510,
      "Ġdata": 1511,
      "There": 1512,
      "ĠíĿ": 1513,
      "Ġher": 1514,
      "Ġ19": 1515,
      "Ġtwo": 1516,
      "ident": 1517,
      "Ġsupp": 1518,
      "ĠëķĮë¬¸": 1519,
      "ë¡ł": 1520,
      "Ġê°ģ": 1521,
      "ĠíĨµíķ´": 1522,
      "ê°ķ": 1523,
      "gr": 1524,
      "Ġdec": 1525,
      "ë§¤": 1526,
      "Ġinto": 1527,
      "ìĦ¤": 1528,
      "íĥĿ": 1529,
      "Ġthem": 1530,
      "ëĵ¤ìĿĺ": 1531,
      "ĠAAA": 1532,
      "Ġonly": 1533,
      "ks": 1534,
      "ĠíĶ¼": 1535,
      "Ġíķ©": 1536,
      "ë°Ķ": 1537,
      "íĶ¼": 1538,
      "ethod": 1539,
      "ëĤĺëĬĶ": 1540,
      "ange": 1541,
      "Ġì²ĺ": 1542,
      "ĠìĤ°": 1543,
      "What": 1544,
      "Ġì»": 1545,
      "ìķĺëĭ¤": 1546,
      "Ġeffect": 1547,
      "Ġcompan": 1548,
      "Ġph": 1549,
      "ĠìĪ": 1550,
      "ower": 1551,
      "ëłĩ": 1552,
      "Ġhigh": 1553,
      "ĠíķĺëĬĶ": 1554,
      "ìłĪ": 1555,
      "Ġìĺģíĸ¥": 1556,
      "Ġëª»": 1557,
      "ĠëĤ¨": 1558,
      "ëŁ¼": 1559,
      "ract": 1560,
      "ution": 1561,
      "acter": 1562,
      "xt": 1563,
      "íķŃ": 1564,
      "íķĺë©´": 1565,
      "Ġ9": 1566,
      "ëıĦë¡Ŀ": 1567,
      "Ġatt": 1568,
      "ëĲĺìĸ´": 1569,
      "ìĿĳ": 1570,
      "Ġass": 1571,
      "'ll": 1572,
      "ë²Ī": 1573,
      "ae": 1574,
      "íĶĮ": 1575,
      "Ġì§ĳ": 1576,
      "ized": 1577,
      "ĠìĭĿ": 1578,
      "íĭ°": 1579,
      "Ġinformation": 1580,
      "Ġshould": 1581,
      "Ġbl": 1582,
      "ëŀĳ": 1583,
      "ê¶Į": 1584,
      "ĠëĬ": 1585,
      "Ġperform": 1586,
      "rain": 1587,
      "Ġë¬¸ìłľ": 1588,
      "Ġhere": 1589,
      "íħľ": 1590,
      "ëĭ¬": 1591,
      "Ġìĸ´ëĸ": 1592,
      "Ġresp": 1593,
      "ov": 1594,
      "ording": 1595,
      "Ġìłķë³´": 1596,
      "BB": 1597,
      "ìĨ¡": 1598,
      "Ġpr": 1599,
      "Ġì§ģ": 1600,
      "ments": 1601,
      "Ġsur": 1602,
      "Ġìŀĺ": 1603,
      "ces": 1604,
      "Ġë°©ë²ķ": 1605,
      "Ġë¨": 1606,
      "ìĹ¼": 1607,
      "Ġbecause": 1608,
      "And": 1609,
      "iss": 1610,
      "ê»ĺ": 1611,
      "Ġê²ĥìĿĦ": 1612,
      "Ġdevelop": 1613,
      "ool": 1614,
      "ural": 1615,
      "ë³´ëĭ¤": 1616,
      "ëįĶ": 1617,
      "ëĬĶëį°": 1618,
      "ient": 1619,
      "Ġproduct": 1620,
      "Ġíĸī": 1621,
      "ëħĢ": 1622,
      "ê·ł": 1623,
      "Ġì¢ħ": 1624,
      "ìĬ¤íħľ": 1625,
      "ax": 1626,
      "ick": 1627,
      "ĪĦ": 1628,
      "Ġform": 1629,
      "ting": 1630,
      "ìļ¸": 1631,
      "ĠíĶĦë¡ľ": 1632,
      "ĠëĺĲëĬĶ": 1633,
      "ular": 1634,
      "Ġê²Į": 1635,
      "ĠíķŃ": 1636,
      "Ġnum": 1637,
      "ì¡±": 1638,
      "Ġ0": 1639,
      "ëĭĪê¹Į": 1640,
      "âĢĻ": 1641,
      "Ġprocess": 1642,
      "Ġê°ĻìĿĢ": 1643,
      "íķĻêµĲ": 1644,
      "old": 1645,
      "Ġì¹ĺ": 1646,
      "ë°°": 1647,
      "Ġìĸĳ": 1648,
      "Ġcontro": 1649,
      "Ġcould": 1650,
      "Ġinter": 1651,
      "ì§ĳ": 1652,
      "ĠëĦĪ": 1653,
      "ĠíĻķìĿ¸": 1654,
      "Ġhim": 1655,
      "Ġmethod": 1656,
      "Ġuse": 1657,
      "·¨": 1658,
      "fore": 1659,
      "ivers": 1660,
      "ì²ľ": 1661,
      "ê¸°ë¥¼": 1662,
      "Ġë³¸": 1663,
      "Ġloc": 1664,
      "Ġmed": 1665,
      "Ġchar": 1666,
      "ention": 1667,
      "uring": 1668,
      "ë¦Ħ": 1669,
      "Ġì¸": 1670,
      "Ġê´Ģëł¨": 1671,
      "ë³µ": 1672,
      "ĠâĢ": 1673,
      "Ġinf": 1674,
      "Ġ200": 1675,
      "ble": 1676,
      "ë¨": 1677,
      "get": 1678,
      "ĠìĹŃ": 1679,
      "As": 1680,
      "Ġgood": 1681,
      "ise": 1682,
      "ature": 1683,
      "chn": 1684,
      "ĠìĤ´": 1685,
      "ĠíĻĶ": 1686,
      "Ġcor": 1687,
      "ë³ĳ": 1688,
      "Ġconf": 1689,
      "Ġval": 1690,
      "Ġgu": 1691,
      "Ġìļ´": 1692,
      "own": 1693,
      "ĠThe": 1694,
      "tain": 1695,
      "ons": 1696,
      "ĠìĹ´": 1697,
      "ince": 1698,
      "Ġìķ½": 1699,
      "Ġìłľê³µ": 1700,
      "Ġì´Ī": 1701,
      "ìŀĲìĿĺ": 1702,
      "Ġì°¸": 1703,
      "ìĥī": 1704,
      "),": 1705,
      "Ġëª©": 1706,
      "ĠëĦ¤": 1707,
      "ĠíĮĲ": 1708,
      "ĠìłĲ": 1709,
      "Ġsm": 1710,
      "Ġëĭ¬": 1711,
      "ysis": 1712,
      "ì¡´": 1713,
      "Ġëį°ìĿ´íĦ°": 1714,
      "ìĻ¸": 1715,
      "ëĭ¤ê³ł": 1716,
      "ìĶ": 1717,
      "If": 1718,
      "ìħĺ": 1719,
      "Ġdev": 1720,
      "±Ħ": 1721,
      "ë³Ģ": 1722,
      "ea": 1723,
      "ec": 1724,
      "ëĭĺ": 1725,
      "Ġcar": 1726,
      "Ġìĭľê°Ħ": 1727,
      "Ġê°Ģì§Ģ": 1728,
      "Ġfin": 1729,
      "Ġfun": 1730,
      "Ġíģ¬": 1731,
      "Ġê°Ģìŀ¥": 1732,
      "ë¹": 1733,
      "Ġeach": 1734,
      "Ġë³µ": 1735,
      "Ġwhere": 1736,
      "Ġshe": 1737,
      "ë´": 1738,
      "ìŀĲê°Ģ": 1739,
      "ìķĦìļĶ": 1740,
      "ìł¸": 1741,
      "Ġ201": 1742,
      "ection": 1743,
      "Ġë©Ķ": 1744,
      "Ġëªħ": 1745,
      "Ġlook": 1746,
      "Ġpol": 1747,
      "ëŁ¬íķľ": 1748,
      "ĠìĥĪ": 1749,
      "oll": 1750,
      "ìĦ±ìĿ´": 1751,
      "ì°°": 1752,
      "ëĤ¬": 1753,
      "Ġmon": 1754,
      "cond": 1755,
      "Ġits": 1756,
      "Ġìĭ¶": 1757,
      "Â·": 1758,
      "chool": 1759,
      "Ġgener": 1760,
      "ĠëŃ": 1761,
      "ted": 1762,
      "vern": 1763,
      "Ġë°ľìĥĿ": 1764,
      "Ġê±¸": 1765,
      "ible": 1766,
      "ck": 1767,
      "les": 1768,
      "Ġserv": 1769,
      "ild": 1770,
      "ple": 1771,
      "íĿ¬": 1772,
      "Ġì¶ľ": 1773,
      "Ġì¸¡": 1774,
      "--": 1775,
      "ron": 1776,
      "Ġì¦Ŀê°Ģ": 1777,
      "ëĿ¼ëĬĶ": 1778,
      "**": 1779,
      "Ġhow": 1780,
      "arch": 1781,
      "ization": 1782,
      "How": 1783,
      "gan": 1784,
      "ft": 1785,
      "Ġsee": 1786,
      "lf": 1787,
      "pos": 1788,
      "ĠìĻ¸": 1789,
      "Ġbu": 1790,
      "ì½Ķ": 1791,
      "ily": 1792,
      "Ġback": 1793,
      "Ġfact": 1794,
      "oy": 1795,
      "Ġexper": 1796,
      "ected": 1797,
      "ĠìĿ´ìĥģ": 1798,
      "ì¶ķ": 1799,
      "ëŀĢ": 1800,
      "Ġpa": 1801,
      "iew": 1802,
      "Ġconc": 1803,
      "ty": 1804,
      "Ġthese": 1805,
      "ank": 1806,
      "ëł¹": 1807,
      "ë¸Į": 1808,
      "aw": 1809,
      "Ġnow": 1810,
      "Ġrem": 1811,
      "ĠëĶĶ": 1812,
      "ëª©": 1813,
      "ee": 1814,
      "Ġcount": 1815,
      "ital": 1816,
      "Ġins": 1817,
      "Ġgroup": 1818,
      "Ġëģ": 1819,
      "oth": 1820,
      "ìĿ´ìĹĲ": 1821,
      "ëħ¸": 1822,
      "ize": 1823,
      "ruct": 1824,
      "ì´Ī": 1825,
      "ê´ĳ": 1826,
      "Ġinst": 1827,
      "ë§Ŀ": 1828,
      "Ġê¹": 1829,
      "ĠíķĺëĤĺ": 1830,
      "000": 1831,
      "Ġoper": 1832,
      "Ġpers": 1833,
      "Ġë§İìĿĢ": 1834,
      "That": 1835,
      ".\"": 1836,
      "cept": 1837,
      "ock": 1838,
      "Ġë¦": 1839,
      "ĠíĸĪ": 1840,
      "Ġê·ľ": 1841,
      "ëłĪìĿ´": 1842,
      "Ġinvest": 1843,
      "iversity": 1844,
      "ne": 1845,
      "Ġnumber": 1846,
      "Ġvery": 1847,
      "ìĹ´": 1848,
      "ife": 1849,
      "Ġëĭ¹ìĭł": 1850,
      "Ġsecond": 1851,
      "íĮĲ": 1852,
      "omm": 1853,
      "ìĺ¨": 1854,
      "enter": 1855,
      "Ġpartic": 1856,
      "Ġëª¨ëĵł": 1857,
      "íķ´ìķ¼": 1858,
      "ĠKorean": 1859,
      "Ġë´": 1860,
      "Ġcase": 1861,
      "ļį": 1862,
      "Ġest": 1863,
      "ĠíĹ": 1864,
      "ĠìĭľìĬ¤íħľ": 1865,
      "ology": 1866,
      "Ġìĭ¬": 1867,
      "ĠìĿĮ": 1868,
      "ency": 1869,
      "ord": 1870,
      "put": 1871,
      "íĻ©": 1872,
      "na": 1873,
      "Ġrequ": 1874,
      "Ġbus": 1875,
      "ì»": 1876,
      "ìĬ¤íĬ¸": 1877,
      "ìŀĸ": 1878,
      "ĠíĪ¬": 1879,
      "19": 1880,
      "ê·¸ëŀĺ": 1881,
      "ì±ħ": 1882,
      "Ġmem": 1883,
      "Ġcur": 1884,
      "Ġíħ": 1885,
      "No": 1886,
      "iness": 1887,
      "Ġgot": 1888,
      "ë¹ĦìĬ¤": 1889,
      "ffic": 1890,
      "Ġwell": 1891,
      "ited": 1892,
      "Ġmin": 1893,
      "ases": 1894,
      "Ġext": 1895,
      "ëĿ½": 1896,
      "ings": 1897,
      "Ġagain": 1898,
      "Ġì¤Ħ": 1899,
      "íģ": 1900,
      "Ġì§ĢìĹŃ": 1901,
      "Ġspec": 1902,
      "Ġmake": 1903,
      "ì¹´": 1904,
      "Ġìłĳ": 1905,
      "Ġty": 1906,
      "Ġcr": 1907,
      "lease": 1908,
      "ork": 1909,
      "ìķ¡": 1910,
      "ven": 1911,
      "Ġdist": 1912,
      "ĠPro": 1913,
      "Ġëĵľ": 1914,
      "io": 1915,
      "Ġì§Ī": 1916,
      "ë°±": 1917,
      "ì¡Į": 1918,
      "Ġëĭ¤ìĸĳ": 1919,
      "Ġì²´": 1920,
      "ever": 1921,
      "li": 1922,
      "Ġì½Ķ": 1923,
      "ì¹ĺëĬĶ": 1924,
      "Ġmark": 1925,
      "íİ¸": 1926,
      "Ġed": 1927,
      "Ġëħ¼": 1928,
      "Ġdifferent": 1929,
      "ëĨ": 1930,
      "Ġche": 1931,
      "Ġsay": 1932,
      "ĠìĹĲ": 1933,
      "Ķëĭ¤": 1934,
      "Ġë²Ī": 1935,
      "Ġra": 1936,
      "Ġì°¾": 1937,
      "Ġê¸Ī": 1938,
      "ience": 1939,
      "Ġcell": 1940,
      "Ġactiv": 1941,
      "íĻľ": 1942,
      "Ġë²ķ": 1943,
      "Ġ12": 1944,
      "ĠëķĮë¬¸ìĹĲ": 1945,
      "But": 1946,
      "ĠAn": 1947,
      "FF": 1948,
      "Ġset": 1949,
      "Ġdisc": 1950,
      "ium": 1951,
      "ìłĳ": 1952,
      "Ġeven": 1953,
      "Ġpur": 1954,
      "Ġcontrol": 1955,
      "irm": 1956,
      "Ġêµ¬ìĦ±": 1957,
      "So": 1958,
      "Ġì¤ĳìļĶ": 1959,
      "asure": 1960,
      "ìĿ´ìķ¼": 1961,
      "ëĤł": 1962,
      "âĪ": 1963,
      "ere": 1964,
      "Ġsim": 1965,
      "Ġê·¼": 1966,
      "ë©Ķ": 1967,
      "ĠëĨį": 1968,
      "ĠEn": 1969,
      "Ġíļ¨ê³¼": 1970,
      "Ġcall": 1971,
      "ëĭ¤ëĬĶ": 1972,
      "Ġday": 1973,
      "ĠìŀĦ": 1974,
      "Ġë§ŀ": 1975,
      "hes": 1976,
      "hip": 1977,
      "Ġë¦¬": 1978,
      "ĠëĲľ": 1979,
      "Ġëĵ¤ìĸ´": 1980,
      "alk": 1981,
      "ermin": 1982,
      "Ġdire": 1983,
      "50": 1984,
      "ism": 1985,
      "Ġtechn": 1986,
      "ìĭľê°Ħ": 1987,
      "Ġelect": 1988,
      "ute": 1989,
      "Ġmost": 1990,
      "Ġtest": 1991,
      "Ġëª¨ëĳĲ": 1992,
      "Ġresults": 1993,
      "ë¡Ģ": 1994,
      "ë°ķ": 1995,
      "íļ¨": 1996,
      "ĠìĨĲ": 1997,
      "Ġìĺ¨": 1998,
      "Ġê±°ìķ¼": 1999,
      "blem": 2000,
      "ollow": 2001,
      "ĠëıĮ": 2002,
      "Ġ30": 2003,
      "Ġevery": 2004,
      "lement": 2005,
      "Ġê°ľë°ľ": 2006,
      "ìĿ´ëĬĶ": 2007,
      "Ġlevel": 2008,
      "tic": 2009,
      "ared": 2010,
      "eah": 2011,
      "ê·¸ëĬĶ": 2012,
      "ëĵ±": 2013,
      "Ġser": 2014,
      "ix": 2015,
      "ĠíķľêµŃ": 2016,
      "ĠìłĪ": 2017,
      "Ġlong": 2018,
      "Ġway": 2019,
      "'ve": 2020,
      "ĠìĻĦ": 2021,
      "iron": 2022,
      "Ġê´Ģíķľ": 2023,
      "ìĿ´ëĤĺ": 2024,
      "ì¶Ķ": 2025,
      "lp": 2026,
      "ê·¸ëŁ¬": 2027,
      "Ġpresent": 2028,
      "Ġê²ĥìĿĢ": 2029,
      "ê²¬": 2030,
      "ê·¹": 2031,
      "ì¸¡": 2032,
      "ĠìĨį": 2033,
      "Ġaut": 2034,
      "Ġdoes": 2035,
      "ì§Ģë¥¼": 2036,
      "Ġprev": 2037,
      "ration": 2038,
      ").": 2039,
      "Ġgrow": 2040,
      "uch": 2041,
      "ë©´ìĦľ": 2042,
      "Ġke": 2043,
      "ving": 2044,
      "Ġë³ĢíĻĶ": 2045,
      "Ġbased": 2046,
      "Ġsame": 2047,
      "Ġtake": 2048,
      "Ġìłģìļ©": 2049,
      "Ġyears": 2050,
      "ĠìĦłíĥĿ": 2051,
      "NA": 2052,
      "ì§ĢëĬĶ": 2053,
      "Ġì¢Ģ": 2054,
      "ality": 2055,
      "ef": 2056,
      "ĠBBB": 2057,
      "Ġìĺģíĸ¥ìĿĦ": 2058,
      "Ġproblem": 2059,
      "ĠìŀĪìĿĦ": 2060,
      "Ġíĺ¸": 2061,
      "urn": 2062,
      "ë¦¼": 2063,
      "Ġref": 2064,
      "ìŀĲëĬĶ": 2065,
      "erg": 2066,
      "Ġend": 2067,
      "Ġgoing": 2068,
      "Ġfound": 2069,
      "30": 2070,
      "Ġíķ¨ê»ĺ": 2071,
      "Ġgovern": 2072,
      "ĠëıĻìķĪ": 2073,
      "alth": 2074,
      "Ġë¸": 2075,
      "ëĲĺê³ł": 2076,
      "Ġcompany": 2077,
      "ian": 2078,
      "ĠëĶ°ë¥¸": 2079,
      "Ġdevice": 2080,
      "Ġìļ©": 2081,
      "Ġdue": 2082,
      "Ġmat": 2083,
      "Ġimport": 2084,
      "ublic": 2085,
      "Ġdi": 2086,
      "rence": 2087,
      "ict": 2088,
      "its": 2089,
      "ì¦Ī": 2090,
      "Ġíıīê°Ģ": 2091,
      "ëĺĲ": 2092,
      "ĠTh": 2093,
      "Ġhelp": 2094,
      "íķĺì§Ģë§Į": 2095,
      "Ġê²°ìłķ": 2096,
      "Ġmany": 2097,
      "ëĤ¨": 2098,
      "ices": 2099,
      "Ġìĺ¬": 2100,
      "ĠëĲł": 2101,
      "Oh": 2102,
      "ave": 2103,
      "Ġmade": 2104,
      "other": 2105,
      "Ġmodel": 2106,
      "Ġê¸°ìĪł": 2107,
      "ĠìĪĺíĸī": 2108,
      "Ġwon": 2109,
      "ë¦¬ë¥¼": 2110,
      "Ġìĭľìŀĳ": 2111,
      "ĠUniversity": 2112,
      "ê±°ëĤĺ": 2113,
      "Ġorder": 2114,
      "ouse": 2115,
      "íĻķ": 2116,
      "Ġì¡": 2117,
      "Ġexam": 2118,
      "ody": 2119,
      "Ġthen": 2120,
      "Ġanalysis": 2121,
      "Ġthree": 2122,
      "ines": 2123,
      "Ġfollow": 2124,
      "Ġmain": 2125,
      "Ġtra": 2126,
      "ĠëĪĦ": 2127,
      "ĠìĿĺíķ´": 2128,
      "Ġ100": 2129,
      "ëĲĺìĹĪ": 2130,
      "ê²ĥìĿĢ": 2131,
      "ì¸µ": 2132,
      "ĠCon": 2133,
      "kay": 2134,
      "íĬ¹": 2135,
      "íķĺìĺĢ": 2136,
      "Ġë¡": 2137,
      "ëıħ": 2138,
      "Ġì£": 2139,
      "ved": 2140,
      "viron": 2141,
      "als": 2142,
      "Ġdown": 2143,
      "gg": 2144,
      "ified": 2145,
      "Ġaddition": 2146,
      "ëģ": 2147,
      "íļį": 2148,
      "Ġschool": 2149,
      "ĠìłľíĴĪ": 2150,
      "ê°Ŀ": 2151,
      "ull": 2152,
      "ts": 2153,
      "way": 2154,
      "ìĹĲëıĦ": 2155,
      "Ġlast": 2156,
      "Ġrece": 2157,
      "ĠëĤ´ê°Ģ": 2158,
      "ĠìķĬëĬĶ": 2159,
      "ĠìŀĪìĹĪ": 2160,
      "ìĦľëĬĶ": 2161,
      "ided": 2162,
      "Ġprodu": 2163,
      "ìķħ": 2164,
      "aking": 2165,
      "day": 2166,
      "ë§ī": 2167,
      "rop": 2168,
      "ëĭ´": 2169,
      "ì°©": 2170,
      "Ġbeing": 2171,
      "Ġì¶©": 2172,
      "They": 2173,
      "wn": 2174,
      "ulation": 2175,
      "Ġbel": 2176,
      "ients": 2177,
      "Ġê´Ģê³Ħ": 2178,
      "Ġperson": 2179,
      "ield": 2180,
      "ĠëĤľ": 2181,
      "conom": 2182,
      "Ġposs": 2183,
      "ë¡ľìļ´": 2184,
      "ety": 2185,
      "Ġsoc": 2186,
      "Ġdef": 2187,
      "Ġreport": 2188,
      "ëłĩê²Į": 2189,
      "»ê²Į": 2190,
      "tle": 2191,
      "ëıĦë¥¼": 2192,
      "Ġop": 2193,
      "ĠìĦľë¹ĦìĬ¤": 2194,
      "ëĵĿ": 2195,
      "ì³": 2196,
      "ption": 2197,
      "ful": 2198,
      "Ġbusiness": 2199,
      "Ġëĭ¤ìĿĮ": 2200,
      "Ġëĭ¤ìĸĳíķľ": 2201,
      "Ġvarious": 2202,
      "Ġdesign": 2203,
      "ë¥ł": 2204,
      "Ġstr": 2205,
      "ision": 2206,
      "ê¸°ìĹĲ": 2207,
      "When": 2208,
      "Ġrese": 2209,
      "ĠìŀĪìĹĪëĭ¤": 2210,
      "Ġì±Ħ": 2211,
      "ability": 2212,
      "ically": 2213,
      "ants": 2214,
      "Ġgl": 2215,
      "Ġmarket": 2216,
      "Ġíģ´": 2217,
      "Ġsupport": 2218,
      "Ġlar": 2219,
      "Ġì´Ŀ": 2220,
      "Ġrep": 2221,
      "ĠíĮ¨": 2222,
      "ym": 2223,
      "Ġsol": 2224,
      "Ġplay": 2225,
      "Ġì¡°ìĤ¬": 2226,
      "ues": 2227,
      "ëĭ¹ìĭł": 2228,
      "Ġ11": 2229,
      "Ġmuch": 2230,
      "Ġaccording": 2231,
      "ĠíĨł": 2232,
      "Ġwater": 2233,
      "tal": 2234,
      "ª½": 2235,
      "ëĮĢíķĻêµĲ": 2236,
      "Ġë§Įëĵ¤": 2237,
      "ìĤ": 2238,
      "Ġì¹´": 2239,
      "yn": 2240,
      "ĠíĥĢ": 2241,
      "Ġpoint": 2242,
      "ë¨¸": 2243,
      "Ġlit": 2244,
      "Ġbefore": 2245,
      "ëį¸": 2246,
      "Ġsec": 2247,
      "Ġcult": 2248,
      "agement": 2249,
      "Ġì·¨": 2250,
      "Ġmean": 2251,
      "ìĬ¨": 2252,
      "ëĲĲ": 2253,
      "Ġarea": 2254,
      "read": 2255,
      "ually": 2256,
      "ĠëĿ": 2257,
      "vironment": 2258,
      "Ġsignific": 2259,
      "Ġë³´ê³ł": 2260,
      "ively": 2261,
      "ì§¸": 2262,
      "Ġstart": 2263,
      "uation": 2264,
      "ìĿ´ìĬ¤": 2265,
      "į¼": 2266,
      "Ġmeasure": 2267,
      "ìĺĪìļĶ": 2268,
      "ĠíĶĮ": 2269,
      "ale": 2270,
      "ĠìĦ¸íı¬": 2271,
      "yl": 2272,
      "Ġredu": 2273,
      "Ġduring": 2274,
      "Ġ15": 2275,
      "Ġì²ĺë¦¬": 2276,
      "Ġíİ¸": 2277,
      "Ġíģ°": 2278,
      "ë¦´": 2279,
      "ëĬĺ": 2280,
      "min": 2281,
      "Ġìĭ¤ìĭľ": 2282,
      "ĠHe": 2283,
      "ĠëĮĢìĥģ": 2284,
      "ĠëĤĺíĥĢëĤ¬": 2285,
      "Ġeduc": 2286,
      "Ġhand": 2287,
      "ering": 2288,
      "arm": 2289,
      "Ġdep": 2290,
      "zure": 2291,
      "Ġê´ĳ": 2292,
      "ĠìĦ¤ëªħ": 2293,
      "Ġë¹ĦêµĲ": 2294,
      "į¨": 2295,
      "ĠëĤł": 2296,
      "Ġì¹ľ": 2297,
      "ìłķìĿĦ": 2298,
      "ather": 2299,
      "ìĿ´ê³ł": 2300,
      "ì½": 2301,
      "Ġclass": 2302,
      "ason": 2303,
      "ìĿ´íĬ¸": 2304,
      "ê¸¸": 2305,
      "Ġíķ©ëĭĪëĭ¤": 2306,
      "Ġtreat": 2307,
      "Ġbr": 2308,
      "ages": 2309,
      "Ġë°ķ": 2310,
      "ìĸµ": 2311,
      "ĠëŃĲ": 2312,
      "She": 2313,
      "ìĸ¸": 2314,
      "Ġê°ĸ": 2315,
      "ĠêµĲìľ¡": 2316,
      "Ġplan": 2317,
      "Ġë³ĳ": 2318,
      "Ġreally": 2319,
      "Ġìĸ¸": 2320,
      "ries": 2321,
      "Ġimpro": 2322,
      "Ġcharacter": 2323,
      "ìķł": 2324,
      "ëĤ´ê°Ģ": 2325,
      "Ġíĸ¥": 2326,
      "Ġëĸ": 2327,
      "Ġwhile": 2328,
      "ìľ¼ë©´": 2329,
      "Ġlife": 2330,
      "ë¦¬ëĬĶ": 2331,
      "Ġuser": 2332,
      "Ġhig": 2333,
      "íİĺ": 2334,
      "Ġfood": 2335,
      "Ġëł": 2336,
      "Ġíķĺê³ł": 2337,
      "Ġë¡ľ": 2338,
      "Ġcomple": 2339,
      "iment": 2340,
      "Ġunit": 2341,
      "ë§ģ": 2342,
      "ê¸°ê°Ģ": 2343,
      "ìŀĪ": 2344,
      "Ġreal": 2345,
      "ìµľ": 2346,
      "ìŀĲë¥¼": 2347,
      "ath": 2348,
      "Ġëıħ": 2349,
      "ros": 2350,
      "Ġì¤Ģ": 2351,
      "ond": 2352,
      "Ġë¨¹": 2353,
      "ëĮĢë¡ľ": 2354,
      "abl": 2355,
      "ox": 2356,
      "istics": 2357,
      "íıī": 2358,
      "par": 2359,
      "Ġìķł": 2360,
      "Ġear": 2361,
      "Ġsignificant": 2362,
      "Ġê°ĲìĨĮ": 2363,
      "Ġvis": 2364,
      "air": 2365,
      "Ġì¡´": 2366,
      "ìĹ°êµ¬": 2367,
      "ĠíĻĺê²½": 2368,
      "Ġfam": 2369,
      "Ġtem": 2370,
      "Ġchange": 2371,
      "Ġcommun": 2372,
      "Ġorgan": 2373,
      "Ġpower": 2374,
      "Ġchang": 2375,
      "Ġìĥģê¸°": 2376,
      "¨ìĸ´": 2377,
      "ìĤ¬ë¥¼": 2378,
      "Ġrate": 2379,
      "ification": 2380,
      "ĠYou": 2381,
      "Ġhead": 2382,
      "Ģë¡ľ": 2383,
      "Ġtoo": 2384,
      "Ġant": 2385,
      "ness": 2386,
      "ëĲĺì§Ģ": 2387,
      "Ġincluding": 2388,
      "íķľíħĮ": 2389,
      "Ġchild": 2390,
      "ĠíħĮ": 2391,
      "Ch": 2392,
      "yeong": 2393,
      "Ġhapp": 2394,
      "ëŀ¨": 2395,
      "Ġgovernment": 2396,
      "Ġmet": 2397,
      "Ġconst": 2398,
      "ĠìĤ¬íļĮ": 2399,
      "Ġeconom": 2400,
      "ĠìĪľ": 2401,
      "ĠëĨĴìĿĢ": 2402,
      "Łģ": 2403,
      "ired": 2404,
      "ìĭŃ": 2405,
      "Ġë³´ìĹ¬": 2406,
      "ered": 2407,
      "Ġthose": 2408,
      "ëł¥ìĿĦ": 2409,
      "osp": 2410,
      "Ġindust": 2411,
      "ĠAs": 2412,
      "artment": 2413,
      "For": 2414,
      "Ġapplic": 2415,
      "©ëĭĪëĭ¤": 2416,
      "Ġpublic": 2417,
      "Ġadd": 2418,
      "Ġprot": 2419,
      "Ġlaw": 2420,
      "Ġì§Ħíĸī": 2421,
      "Ġsom": 2422,
      "ĠíĻľìļ©": 2423,
      "imes": 2424,
      "Ġdidn": 2425,
      "ĠëĤ®": 2426,
      "ìĭľíĤ¤": 2427,
      "ëıĦê°Ģ": 2428,
      "Ġfil": 2429,
      "Ġì²Ń": 2430,
      "Ġì½": 2431,
      "Ġmonth": 2432,
      "ìĿ´ëĿ¼ê³ł": 2433,
      "ina": 2434,
      "ĠìĥĿìĦ±": 2435,
      "âĢĿ": 2436,
      "Ġworld": 2437,
      "iod": 2438,
      "ìĬ¹": 2439,
      "ë¦¬ìķĦ": 2440,
      "Ġlow": 2441,
      "Ġë²Ħ": 2442,
      "Ġì£½": 2443,
      "yz": 2444,
      "Ġê´Ģë¦¬": 2445,
      "ĠìĹ¬ëŁ¬": 2446,
      "ructure": 2447,
      "Ġsit": 2448,
      "Ġrest": 2449,
      "ë¶Ī": 2450,
      "Ġë§¤ìļ°": 2451,
      "itive": 2452,
      "ì¹¨": 2453,
      "Ġíĺĳ": 2454,
      "Ġent": 2455,
      "erest": 2456,
      "ìĥģìĿĦ": 2457,
      "ward": 2458,
      "Ġì¸¡ìłķ": 2459,
      "ê·¸ëŀ¨": 2460,
      "ìŀĸìķĦ": 2461,
      "ëł¸": 2462,
      "Ġmeet": 2463,
      "ëĦ¤ìļĶ": 2464,
      "12": 2465,
      "Ġvalue": 2466,
      "Ġë³¼": 2467,
      "Ġê¸°ëĬ¥": 2468,
      "Ġì§ĢìĽĲ": 2469,
      "Ġhum": 2470,
      "Ġê¸°ë°ĺ": 2471,
      "Ġlet": 2472,
      "thing": 2473,
      "riend": 2474,
      "Ġêµ¬ì¡°": 2475,
      "Ġtax": 2476,
      "Ġìŀ¥ì¹ĺ": 2477,
      "Ġë°Ŀ": 2478,
      "Ġfunction": 2479,
      "here": 2480,
      "Ġìĸ¼": 2481,
      "ĠìĿ´ë¯¸": 2482,
      "Ġcap": 2483,
      "ê·¸ë¦¬ê³ł": 2484,
      "ìĿ´ë¥¼": 2485,
      "Ġservice": 2486,
      "Ġê¸°ìĹħ": 2487,
      "Ġinterest": 2488,
      "Ġvari": 2489,
      "ĠìĹĨëĬĶ": 2490,
      "Ġlear": 2491,
      "ìŁģ": 2492,
      "Ġ$": 2493,
      "ins": 2494,
      "ew": 2495,
      "Yeah": 2496,
      "ì¶©": 2497,
      "Ġìĸ´ëĸ»ê²Į": 2498,
      "gram": 2499,
      "ìª½": 2500,
      "Ġtell": 2501,
      "Ġcre": 2502,
      "Ġwithout": 2503,
      "ìĺ¬": 2504,
      "Ġê°ĻìĿ´": 2505,
      "Ġmust": 2506,
      "Ġlot": 2507,
      "Ġthough": 2508,
      "Ġocc": 2509,
      "ĠNational": 2510,
      "Ġcondition": 2511,
      "Ġtri": 2512,
      "Ġimportant": 2513,
      "ĠìĿĳ": 2514,
      "Ġown": 2515,
      "ê²łìĬµëĭĪëĭ¤": 2516,
      "ê±¸": 2517,
      "Ġìĥģíĥľ": 2518,
      "Ġë²Ķ": 2519,
      "ior": 2520,
      "Ġê·ł": 2521,
      "Ġcour": 2522,
      "Well": 2523,
      "ĠìľĦì¹ĺ": 2524,
      "ĠAr": 2525,
      "Ġstand": 2526,
      "Ġê·¸ëŀĺ": 2527,
      "lear": 2528,
      "íķĺë©°": 2529,
      "Ġcare": 2530,
      "ĠâĢľ": 2531,
      "Ġ50": 2532,
      "ĠëĴ": 2533,
      "ìĿ´ì§Ģ": 2534,
      "irc": 2535,
      "Ġsl": 2536,
      "Ġdiff": 2537,
      "ëĤĺìļĶ": 2538,
      "ĠìľłìłĦ": 2539,
      "ives": 2540,
      "Ġìłķë§Ĳ": 2541,
      "Ġboth": 2542,
      "ìį¨": 2543,
      "Ġplace": 2544,
      "ĠìĹħ": 2545,
      "raph": 2546,
      "Ġëı¼": 2547,
      "íķ´ìļĶ": 2548,
      "ĠìķĮê³ł": 2549,
      "On": 2550,
      "aterial": 2551,
      "ìļ°ë¦¬ëĬĶ": 2552,
      "Ġperformance": 2553,
      "St": 2554,
      "Ġwr": 2555,
      "Yes": 2556,
      "ĠìŀĪìĸ´ìļĶ": 2557,
      "Ġcome": 2558,
      "¿Ĳ": 2559,
      "ìķĮ": 2560,
      "Ġexpl": 2561,
      "Ġret": 2562,
      "ters": 2563,
      "ĠëĿ¼": 2564,
      "ìĤ¬ìĿĺ": 2565,
      "Ġdirect": 2566,
      "Ġê·¸ë¦¬ê³ł": 2567,
      "Al": 2568,
      "ex": 2569,
      "face": 2570,
      "Ġëĭ¤ìĭľ": 2571,
      "Ġselect": 2572,
      "onna": 2573,
      "Ġë¯¸ì¹ĺëĬĶ": 2574,
      "ope": 2575,
      "orth": 2576,
      "Ġhy": 2577,
      "ived": 2578,
      "Ġcurrent": 2579,
      "°ëĿ¼": 2580,
      "Ġsens": 2581,
      "Ġê²½ìłľ": 2582,
      "ĠìĥģíĻ©": 2583,
      "Ġresearch": 2584,
      "Ġë¯¸êµŃ": 2585,
      "ĠëłĪ": 2586,
      "eration": 2587,
      "ëł¤ê³ł": 2588,
      "ides": 2589,
      "Ġanalyz": 2590,
      "40": 2591,
      "Ġìĵ": 2592,
      "Ġì¶Ķê°Ģ": 2593,
      "ê·ľ": 2594,
      "ê¸°ëĬĶ": 2595,
      "Ġdevelopment": 2596,
      "gu": 2597,
      "Ġdispl": 2598,
      "ĠìĤ¬ìĿ´": 2599,
      "ëķĮ": 2600,
      "Ġtalk": 2601,
      "ner": 2602,
      "Ġì§ĢëĤľ": 2603,
      "Ġaround": 2604,
      "Ġëª¨ëį¸": 2605,
      "Ġident": 2606,
      "ĠìĹĨëĭ¤": 2607,
      "ìĿĮìĿĦ": 2608,
      "ë¶ģ": 2609,
      "ĠìķĮëł¤": 2610,
      "íĥĦ": 2611,
      "be": 2612,
      "ĠíĬ¸": 2613,
      "ê°ľìĿĺ": 2614,
      "reen": 2615,
      "ĠìķĦëĭĪëĿ¼": 2616,
      "ĠìĪĺì¤Ģ": 2617,
      "íķ´ìĦľ": 2618,
      "ëŀľ": 2619,
      "ogn": 2620,
      "'d": 2621,
      "Ġpay": 2622,
      "ëŁ½": 2623,
      "Ġ16": 2624,
      "Ġpri": 2625,
      "ì²ĺëŁ¼": 2626,
      "AAA": 2627,
      "Ġ18": 2628,
      "ething": 2629,
      "ator": 2630,
      "Ġgonna": 2631,
      "ify": 2632,
      "Ġlead": 2633,
      "Ġdem": 2634,
      "Ġinvestig": 2635,
      "Ġë§İìĿ´": 2636,
      "Ġì¢ĭìķĦ": 2637,
      "Ġíŀ": 2638,
      "oon": 2639,
      "ì§ķ": 2640,
      "illion": 2641,
      "Ġenvironment": 2642,
      "ĠìĿ´ìļ©íķľ": 2643,
      "ëĥĲ": 2644,
      "Ġwee": 2645,
      "Ġíĥľ": 2646,
      "ĠĠĠĠ": 2647,
      "fer": 2648,
      "ĠìĺģìĹŃ": 2649,
      "ĠëĤĺíĥĢëĤ¬ëĭ¤": 2650,
      "Ġdays": 2651,
      "ìĿ´ëŁ¬íķľ": 2652,
      "ined": 2653,
      "ī´": 2654,
      "Ġemb": 2655,
      "pr": 2656,
      "ìĿµ": 2657,
      "ĠìłľìķĪ": 2658,
      "action": 2659,
      "11": 2660,
      "Ġsmall": 2661,
      "oci": 2662,
      "Ġfore": 2663,
      "ĠêµŃê°Ģ": 2664,
      "ì¸ł": 2665,
      "oul": 2666,
      "íĻĶë¥¼": 2667,
      "Ġequ": 2668,
      "ë²Ķ": 2669,
      "ĠìĥĿìĤ°": 2670,
      "ently": 2671,
      "Ġë©´": 2672,
      "por": 2673,
      "Ġfeel": 2674,
      "Ġsince": 2675,
      "self": 2676,
      "Ġë¯¼": 2677,
      "Ġopen": 2678,
      "Ġì§Ģê¸Ī": 2679,
      "ĠRe": 2680,
      "Ġprom": 2681,
      "ĠìĥĪë¡ľìļ´": 2682,
      "Ġstill": 2683,
      "stand": 2684,
      "Ġproducts": 2685,
      "Ġhome": 2686,
      "Ġìĭ¤íĹĺ": 2687,
      "mer": 2688,
      "ë°Ľ": 2689,
      "ĠíĬ¹ìĦ±": 2690,
      "ĠìĻľ": 2691,
      "ger": 2692,
      "uss": 2693,
      "rodu": 2694,
      "led": 2695,
      "Ġconduct": 2696,
      "ds": 2697,
      "ĳĺ": 2698,
      "Ġeducation": 2699,
      "Ġpar": 2700,
      "sc": 2701,
      "icro": 2702,
      "Ġincreased": 2703,
      "ìŀ¥ìĿĦ": 2704,
      "Ġperiod": 2705,
      "Ġpatients": 2706,
      "Ġlocal": 2707,
      "íĪ¬": 2708,
      "Ġbro": 2709,
      "ìĭĿìĿĦ": 2710,
      "ìĹĶ": 2711,
      "Ġrelated": 2712,
      "cer": 2713,
      "ëŁ¬ìĬ¤": 2714,
      "Ġhealth": 2715,
      "mit": 2716,
      "Ġimage": 2717,
      "Ġëĭ´": 2718,
      "Ġì»¤": 2719,
      "Ġadv": 2720,
      "ĠìķĬìķĺëĭ¤": 2721,
      "Ġìķŀ": 2722,
      "Ġstate": 2723,
      "ĠStud": 2724,
      "ëĵ¤ìĹĲê²Į": 2725,
      "ional": 2726,
      "However": 2727,
      "ĠìĦ¸ê³Ħ": 2728,
      "Ġbas": 2729,
      "Ġincrease": 2730,
      "aj": 2731,
      "ĠìĿĺë¯¸": 2732,
      "Ġgreat": 2733,
      "Ġproper": 2734,
      "Ġìº": 2735,
      "Ġìĸĺ": 2736,
      "atic": 2737,
      "Ġì¹ĺë£Į": 2738,
      "ĠFFF": 2739,
      "ĠìĪĺëıĦ": 2740,
      "ë¡ľë¶ĢíĦ°": 2741,
      "Ġask": 2742,
      "ì§ľ": 2743,
      "osed": 2744,
      "ĠìķĮìķĦ": 2745,
      "Ġpolic": 2746,
      "less": 2747,
      "ĠìŀĲìĭł": 2748,
      "Ġcontin": 2749,
      "Ġconfirm": 2750,
      "icult": 2751,
      "ë²ł": 2752,
      "ission": 2753,
      "Ġê·¸ê²ĥ": 2754,
      "ìħ¨": 2755,
      "Ġiss": 2756,
      "ì¹ľ": 2757,
      "ode": 2758,
      "ĠAct": 2759,
      "Ġtotal": 2760,
      "Ġstudents": 2761,
      "Ġshowed": 2762,
      "Ġfind": 2763,
      "Ġìłľìĸ´": 2764,
      "íĮħ": 2765,
      "To": 2766,
      "Ġì¢ĭìĿĢ": 2767,
      "uck": 2768,
      "ëĦĲ": 2769,
      "Do": 2770,
      "Ġeval": 2771,
      "Ġmanagement": 2772,
      "Ġpass": 2773,
      "ĠìĹ¬ê¸°": 2774,
      "Acc": 2775,
      "ĠìĤ¬ìĹħ": 2776,
      "ished": 2777,
      "Ġve": 2778,
      "Ġcompanies": 2779,
      "che": 2780,
      "ĠìĤ¬ìļ©íķĺìĹ¬": 2781,
      "ĠíĽ": 2782,
      "ì£¼ìĿĺ": 2783,
      "ĠìķĬìķĺ": 2784,
      "Ġsw": 2785,
      "Ġlittle": 2786,
      "ustom": 2787,
      "Ġdri": 2788,
      "Ġsomething": 2789,
      "ression": 2790,
      "ëĺĲíķľ": 2791,
      "ìĶ¨": 2792,
      "ĠIt": 2793,
      "Ġtype": 2794,
      "ten": 2795,
      "bers": 2796,
      "Ġìī": 2797,
      "ination": 2798,
      "Ġprogram": 2799,
      "ê²¨": 2800,
      "Ġfac": 2801,
      "Ġê¶Į": 2802,
      "Ġprof": 2803,
      "lu": 2804,
      "ĠíĸĪëĭ¤": 2805,
      "Ġrev": 2806,
      "ìĤ¬ê°Ģ": 2807,
      "Ġcal": 2808,
      "ìĽĢ": 2809,
      "ĠìĿĺíķľ": 2810,
      "Ġlarge": 2811,
      "ĠìłķëıĦ": 2812,
      "Ġìĸ»": 2813,
      "ìĿ´ëĿ¼": 2814,
      "Ġbet": 2815,
      "Ġì¦": 2816,
      "Ġread": 2817,
      "Ġconn": 2818,
      "Ġnon": 2819,
      "ì³Ĳ": 2820,
      "Ġestabl": 2821,
      "Ġlim": 2822,
      "Ġ[": 2823,
      "ìķķ": 2824,
      "cl": 2825,
      "Ġintern": 2826,
      "ĠìĹ°ê²°": 2827,
      "oint": 2828,
      "ĠìķĬìĿĢ": 2829,
      "ĠMin": 2830,
      "Ġtreatment": 2831,
      "ately": 2832,
      "ĠìķĦìĿ´": 2833,
      "ĠìĤ¬ìĭ¤": 2834,
      "Ġíĺ¼": 2835,
      "ìĪľ": 2836,
      "Ġnext": 2837,
      "ìĿ´ìĹĪ": 2838,
      "Ġê°ģê°ģ": 2839,
      "Ġì°½": 2840,
      "ëĥ¥": 2841,
      "Ġtry": 2842,
      "Ġamount": 2843,
      "Ġì¡´ìŀ¬": 2844,
      "iving": 2845,
      "Ġìŀł": 2846,
      "ures": 2847,
      "oss": 2848,
      "Ġrelations": 2849,
      "Ġleg": 2850,
      "Ġmult": 2851,
      "ĠëĦĪë¬´": 2852,
      "ret": 2853,
      "ĠWh": 2854,
      "ìłľê°Ģ": 2855,
      "Ġeas": 2856,
      "Ġteam": 2857,
      "Ġnecess": 2858,
      "Ġìłķë¶Ģ": 2859,
      "ĠëģĿ": 2860,
      "ert": 2861,
      "ication": 2862,
      "ource": 2863,
      "íĦ´": 2864,
      "ë¦¬ê°Ģ": 2865,
      "ense": 2866,
      "Ġê³łëł¤": 2867,
      "entr": 2868,
      "Ġ13": 2869,
      "Ġdisplay": 2870,
      "etwork": 2871,
      "Ġmaterial": 2872,
      "Ġë¶Ģë¶Ħ": 2873,
      "All": 2874,
      "ë´Ĳ": 2875,
      "ĠâĢĺ": 2876,
      "Ġê°Ī": 2877,
      "inal": 2878,
      "ë¯": 2879,
      "Ġpossible": 2880,
      "Ġ|": 2881,
      "Ġwhy": 2882,
      "íĸĪìĬµëĭĪëĭ¤": 2883,
      "outh": 2884,
      "íķĻìłģ": 2885,
      "ëªħìĿĺ": 2886,
      "ĠíĺķìĦ±": 2887,
      "Ġhigher": 2888,
      "ĠìĿ¼ë°ĺ": 2889,
      "ĠëĤ´ìļ©": 2890,
      "Ġparticip": 2891,
      "oney": 2892,
      "iting": 2893,
      "Ġ14": 2894,
      "Ġcontain": 2895,
      "Ġsocial": 2896,
      "ë°Ģ": 2897,
      "Ġë´Ĳ": 2898,
      "Ġsam": 2899,
      "Ġê¸°ì¤Ģ": 2900,
      "Ġgrowth": 2901,
      "Ġcost": 2902,
      "ane": 2903,
      "ìĤ¬ëĬĶ": 2904,
      "Ġwithin": 2905,
      "perature": 2906,
      "Ġfield": 2907,
      "Ġav": 2908,
      "Ġname": 2909,
      "iqu": 2910,
      "Ġinclude": 2911,
      "ëŃ": 2912,
      "Ġëªĩ": 2913,
      "ë¶Ģë¶Ħ": 2914,
      "Ġìĸ´ëĸ¤": 2915,
      "Ġvol": 2916,
      "lection": 2917,
      "Ġìłľìĭľ": 2918,
      "ER": 2919,
      "Ġë¹ł": 2920,
      "line": 2921,
      "Ġlist": 2922,
      "ë¸Ķ": 2923,
      "ìĪĺìĿĺ": 2924,
      "ì°®": 2925,
      "Ġpaper": 2926,
      "Ġ**": 2927,
      "ug": 2928,
      "Ġê³³": 2929,
      "ìĿ¸ìĿ´": 2930,
      "ĠíĴ": 2931,
      "ivid": 2932,
      "ê¸´": 2933,
      "ì»¤": 2934,
      "ĠìĹĦ": 2935,
      "Ġagainst": 2936,
      "According": 2937,
      "Ġdifficult": 2938,
      "ĠíĶĦë¡ľê·¸ëŀ¨": 2939,
      "ĠëĴ¤": 2940,
      "ĠìĦ¤ê³Ħ": 2941,
      "ĠìŀĪìľ¼ë©°": 2942,
      "ë£¹": 2943,
      "Ġíķ´ëĭ¹": 2944,
      "ì·¨": 2945,
      "Ġë¶ģ": 2946,
      "Ġstat": 2947,
      "ĠDe": 2948,
      "crib": 2949,
      "apan": 2950,
      "Ġì±ħ": 2951,
      "Ġsk": 2952,
      "ieve": 2953,
      "Ġfour": 2954,
      "Ġput": 2955,
      "Ġview": 2956,
      "ential": 2957,
      "Ġnever": 2958,
      "pose": 2959,
      "Ġìłķë³´ë¥¼": 2960,
      "ospital": 2961,
      "Ġcontent": 2962,
      "ĠRes": 2963,
      "Ġvir": 2964,
      "ê·¸ëħĢ": 2965,
      "serv": 2966,
      "íģ´": 2967,
      "Ġmus": 2968,
      "Ġann": 2969,
      "ìĹĲìĦľìĿĺ": 2970,
      "pect": 2971,
      "Ġíĳľìĭľ": 2972,
      ",\"": 2973,
      "urity": 2974,
      "´ľ": 2975,
      "Ġsal": 2976,
      "ĠìŀĪëĭ¤ê³ł": 2977,
      "ìŀ¥ìĿ´": 2978,
      "Ġhouse": 2979,
      "Ġwhether": 2980,
      "âĢ¦": 2981,
      "Ġacid": 2982,
      "atch": 2983,
      "ëħĲ": 2984,
      "ggest": 2985,
      "ĠìĿ´íķ´": 2986,
      "ĠìĿ´íĽĦ": 2987,
      "Ġì¶ķ": 2988,
      "ĠWe": 2989,
      "Ġoffic": 2990,
      "ĠìĿ´ìľł": 2991,
      "ì¡Įëĭ¤": 2992,
      "Ġrun": 2993,
      "ê¸°ëıĦ": 2994,
      "Ġpropos": 2995,
      "ancial": 2996,
      "Ġê¸¸": 2997,
      "ĪĪ": 2998,
      "agn": 2999,
      "ìĿ´ê°Ģ": 3000,
      "íį¼": 3001,
      "Ġobject": 3002,
      "Ġë°Ŀíĺ": 3003,
      "ĠìĿ´ëŁ¬íķľ": 3004,
      "akes": 3005,
      "ĠìĦ¤ìłķ": 3006,
      "Ġquest": 3007,
      "Ġìŀ¡": 3008,
      "ĠíĦ": 3009,
      "Ġjob": 3010,
      "ring": 3011,
      "ì¦ĺ": 3012,
      "hib": 3013,
      "ìĦ¼": 3014,
      "Ġdetermin": 3015,
      "Ġlo": 3016,
      "ars": 3017,
      "Ġsuggest": 3018,
      "ëĭĮ": 3019,
      "Ġê°ĲìĹ¼": 3020,
      "ì¤Ħ": 3021,
      "oo": 3022,
      "Ġì¹¨": 3023,
      "ĠìĿ´ìļ©íķĺìĹ¬": 3024,
      "ìĥģê¸°": 3025,
      "ê·¸ëŁ¬ëĤĺ": 3026,
      "amp": 3027,
      "Ġlight": 3028,
      "eng": 3029,
      "ems": 3030,
      "ĠEng": 3031,
      "ibility": 3032,
      "Ġamong": 3033,
      "ĠìķĶ": 3034,
      "Ġcells": 3035,
      "onse": 3036,
      "Ġì¤ĳìļĶíķľ": 3037,
      "íĥģ": 3038,
      "ìŀ¥ìĿĢ": 3039,
      "Ġë¸Į": 3040,
      "´ľì°®": 3041,
      "Ġpop": 3042,
      "Ġart": 3043,
      "Ġproject": 3044,
      "Ġêµ°": 3045,
      "Ġrespect": 3046,
      "rel": 3047,
      "Ġê·Ģ": 3048,
      "ists": 3049,
      "Ġì¤ĳìĭ¬": 3050,
      "Ġbuil": 3051,
      "ìħĶ": 3052,
      "ĠëĲľëĭ¤": 3053,
      "ID": 3054,
      "Ġris": 3055,
      "ê¹Ģ": 3056,
      "ìĤ´": 3057,
      "ĠìĿ´ë£¨": 3058,
      "Ġë°ĺìĿĳ": 3059,
      "ĠìŀĪëĭ¤ëĬĶ": 3060,
      "ways": 3061,
      "ĠíĺĦìŀ¬": 3062,
      "ľ´": 3063,
      "Ġel": 3064,
      "Ġsubject": 3065,
      "ëĿ¼ìĿ´": 3066,
      "Ġì¤ĳêµŃ": 3067,
      "ëĪĦ": 3068,
      "Ġcustom": 3069,
      "ĠíķĻìĥĿ": 3070,
      "ĠìłĢìŀ¥": 3071,
      "Ġhard": 3072,
      "ĠìľłìĿĺ": 3073,
      "Ġoccur": 3074,
      "Ġê°Ģì§Ģê³ł": 3075,
      "Ġunderstand": 3076,
      "ìĹĨ": 3077,
      "ĠíĹĪ": 3078,
      "Ġdom": 3079,
      "ìķĦëĭĪ": 3080,
      "At": 3081,
      "Ġ:": 3082,
      "au": 3083,
      "omen": 3084,
      "ĠCO": 3085,
      "ìĪĺë¥¼": 3086,
      "orry": 3087,
      "ĠComm": 3088,
      "Ġìľłì§Ģ": 3089,
      "ĠìĤ¬ìļ©ìŀĲ": 3090,
      "ìĿ´ìĹĲìļĶ": 3091,
      "ê²Ģ": 3092,
      "ĠìŀĪê³ł": 3093,
      "ateg": 3094,
      "ruction": 3095,
      "ĠëĺĲíķľ": 3096,
      "íķĻê³¼": 3097,
      "ĠStudy": 3098,
      "ajor": 3099,
      "ĠSeoul": 3100,
      "Ġ25": 3101,
      "ological": 3102,
      "Ġline": 3103,
      "ending": 3104,
      "Ġbo": 3105,
      "Ġrecogn": 3106,
      "Ġì¹ľêµ¬": 3107,
      "Ġstructure": 3108,
      "Ġê³Ħíļį": 3109,
      "Ġpred": 3110,
      "Ġê°Ĵ": 3111,
      "Ġprovide": 3112,
      "Ġcheck": 3113,
      "Ġmov": 3114,
      "ìĭľìĺ¤": 3115,
      "ĠíĮĲëĭ¨": 3116,
      "My": 3117,
      "med": 3118,
      "stit": 3119,
      "íķĺìĦ¸ìļĶ": 3120,
      "ê¸°ìĿĺ": 3121,
      "Ġlay": 3122,
      "ĠíĤ": 3123,
      "Ġstore": 3124,
      "AT": 3125,
      "Ġìļ´ìĺģ": 3126,
      "Ġair": 3127,
      "ĠìĹ°êµ¬ëĬĶ": 3128,
      "ash": 3129,
      "Ġì¶Ķì¶ľ": 3130,
      "ëĭµ": 3131,
      "ĠìĹĨìĸ´": 3132,
      "Ġappro": 3133,
      "15": 3134,
      "ples": 3135,
      "Ġconsid": 3136,
      "lied": 3137,
      "Ġhuman": 3138,
      "Ġê·¸ëħĢ": 3139,
      "Ġapplication": 3140,
      "Ġshall": 3141,
      "Ġìŀħëł¥": 3142,
      "Ġbeh": 3143,
      "ĠíĻľìĦ±": 3144,
      "me": 3145,
      "ĠìłĦì²´": 3146,
      "Ġnecessary": 3147,
      "Ġgive": 3148,
      "ern": 3149,
      "ĠíĻľëıĻ": 3150,
      "ìĭľì¼": 3151,
      "Ġspecial": 3152,
      "Ġroom": 3153,
      "Ġdr": 3154,
      "ended": 3155,
      "ĠìķĪìłĦ": 3156,
      "ĠëĤĺëĬĶ": 3157,
      "ìłĲìĿĦ": 3158,
      "Ġtemperature": 3159,
      "Ġëĵ±ìĿĦ": 3160,
      "íķľêµŃ": 3161,
      "ĠíĺĪ": 3162,
      "ìľ¼ëĤĺ": 3163,
      "Ġbig": 3164,
      "ĠCom": 3165,
      "ĠìļĶêµ¬": 3166,
      "Ġìłķì±ħ": 3167,
      "Ġfriend": 3168,
      "Ġcaus": 3169,
      "ĠìľĦíĹĺ": 3170,
      "ĠëĬĲ": 3171,
      "Ġtechnology": 3172,
      "app": 3173,
      "ëĬĲ": 3174,
      "iven": 3175,
      "ëıĦëĬĶ": 3176,
      "do": 3177,
      "Ġì§ģìłĳ": 3178,
      "ìĿ¸ìĿĺ": 3179,
      "ìľ¼ë¡ľìį¨": 3180,
      "cing": 3181,
      "ìłĢëĬĶ": 3182,
      "Ġintrodu": 3183,
      "ë¹ł": 3184,
      "ĠìĿ¼ë¶Ģ": 3185,
      "til": 3186,
      "ìĥĪ": 3187,
      "Ġcountries": 3188,
      "ëħķ": 3189,
      "Ġ40": 3190,
      "De": 3191,
      "íĺĳ": 3192,
      "Ġëª¨ë¥´": 3193,
      "ìĹĲìļĶ": 3194,
      "ë¬¼ìĿĦ": 3195,
      "Ġê³¼ìłķ": 3196,
      "100": 3197,
      "Ġbetter": 3198,
      "Ġ24": 3199,
      "ê·Ģ": 3200,
      "Ġfre": 3201,
      "Ġplease": 3202,
      "oh": 3203,
      "ĠNorth": 3204,
      "Ġê¸ī": 3205,
      "ĵ¨": 3206,
      "Ġold": 3207,
      "ird": 3208,
      "Ġë³´íĺ¸": 3209,
      "ilar": 3210,
      "ĠSc": 3211,
      "ë¬¼ìĿĺ": 3212,
      "Ġthing": 3213,
      "ĠJapan": 3214,
      "ilities": 3215,
      "ĠìĶ": 3216,
      "und": 3217,
      "ĠìĿ¸íĦ°": 3218,
      "ê°Ģì§Ģ": 3219,
      "to": 3220,
      "uk": 3221,
      "Ġ17": 3222,
      "com": 3223,
      "ëĵ¤ê³¼": 3224,
      "ë²Į": 3225,
      "Ġbest": 3226,
      "Ġlove": 3227,
      "ê¹ĮìļĶ": 3228,
      "ergy": 3229,
      "Ġrelationship": 3230,
      "ìľµ": 3231,
      "Ġë§ī": 3232,
      "Ġcompet": 3233,
      "Ġë°ľê²¬": 3234,
      "ream": 3235,
      "ĠKim": 3236,
      "IN": 3237,
      "ĠìľĦíķĺìĹ¬": 3238,
      "Ġallow": 3239,
      "inc": 3240,
      "ole": 3241,
      "ĠìĿ´ëıĻ": 3242,
      "íĮ¨": 3243,
      "Ġìĭłíĺ¸": 3244,
      "Ġë°±": 3245,
      "de": 3246,
      "ìĿ´ìĹĪëĭ¤": 3247,
      "Ġindic": 3248,
      "Ġchildren": 3249,
      "Ġdecre": 3250,
      "Ġcompared": 3251,
      "uture": 3252,
      "Ġterm": 3253,
      "Ġfamily": 3254,
      "ĠíķĦìļĶíķľ": 3255,
      "Ġê°ľìĦł": 3256,
      "Hey": 3257,
      "ìķĶ": 3258,
      "Ġbody": 3259,
      "âĪĴ": 3260,
      "íĺ¼": 3261,
      "Ġì¤Ģë¹Ħ": 3262,
      "ĠìŀĪëıĦë¡Ŀ": 3263,
      "ìĭľìķĦ": 3264,
      "Ġanother": 3265,
      "Ġíĺķíĥľ": 3266,
      "ĠSh": 3267,
      "asing": 3268,
      "Ġëĭ¨ê³Ħ": 3269,
      "ister": 3270,
      "ulated": 3271,
      "ĠìłĦìĹĲ": 3272,
      "Ġëħ¼ë¬¸": 3273,
      "ì¹Ļ": 3274,
      "ê±°ëĵł": 3275,
      "sing": 3276,
      "Ġimprove": 3277,
      "ĠìĿ´ë¦Ħ": 3278,
      "Ġkind": 3279,
      "Ġconsum": 3280,
      "Ġsing": 3281,
      "Ġê·¸ëŁ°": 3282,
      "ìĩ": 3283,
      "Ġê±°ìĺĪìļĶ": 3284,
      "ets": 3285,
      "íķĺëıĦë¡Ŀ": 3286,
      "Ġu": 3287,
      "resent": 3288,
      "Ġcharacteristics": 3289,
      "Ġìĵ°": 3290,
      "ëŀµ": 3291,
      "Ġmove": 3292,
      "ĠíĤ¤": 3293,
      "ëĬĶì§Ģ": 3294,
      "Ġcountry": 3295,
      "ë°±ì§Ī": 3296,
      "´í": 3297,
      "Okay": 3298,
      "ĠìĿ¸ìĭĿ": 3299,
      "ann": 3300,
      "Ġì½ĺ": 3301,
      "urther": 3302,
      "ìłĦíŀĪ": 3303,
      "epartment": 3304,
      "fficient": 3305,
      "Ġport": 3306,
      "ìĬ¤ë¥¼": 3307,
      "Ġë§ĲíĸĪëĭ¤": 3308,
      "ju": 3309,
      "Ġê²ĥìŀħëĭĪëĭ¤": 3310,
      "ĠìĤ°ìĹħ": 3311,
      "Ġoperation": 3312,
      "ì¢ĭ": 3313,
      "Ġexist": 3314,
      "ì£Ħ": 3315,
      "Ġì°¸ìĹ¬": 3316,
      "âĪĺ": 3317,
      "ĠìĦ¼": 3318,
      "Ġíŀĺ": 3319,
      "ë¦Ń": 3320,
      "Ġcases": 3321,
      "IG": 3322,
      "ĠìĹŃíķł": 3323,
      "Ġdoing": 3324,
      "Ġdam": 3325,
      "ĠAzure": 3326,
      "íķĺë©´ìĦľ": 3327,
      "ĠìłĦìŀĲ": 3328,
      "Ġlower": 3329,
      "AN": 3330,
      "Ġtimes": 3331,
      "Ġstrain": 3332,
      "Ġempl": 3333,
      "ì²´ìĿĺ": 3334,
      "Ġë°©ìĭĿ": 3335,
      "Ġmajor": 3336,
      "ìĿ¸ìĿĦ": 3337,
      "ference": 3338,
      "ìĹĲìĦľëıĦ": 3339,
      "Ġindustry": 3340,
      "Ġprevious": 3341,
      "Why": 3342,
      "land": 3343,
      "Ġê´Ģìĭ¬": 3344,
      "ĠìĦ±ìŀ¥": 3345,
      "ëł¥ìĿ´": 3346,
      "Ġreason": 3347,
      "ĠìłĦë¬¸": 3348,
      "ê°Ī": 3349,
      "Ġembod": 3350,
      "ured": 3351,
      "200": 3352,
      "Ġcirc": 3353,
      "ì¹ĺë¥¼": 3354,
      "gen": 3355,
      "ĠìĿ´ë¥¼": 3356,
      "Ġexpected": 3357,
      "ĠTe": 3358,
      "br": 3359,
      "Ġdise": 3360,
      "Is": 3361,
      "ĠíĻĺìŀĲ": 3362,
      "ëıĦìĿĺ": 3363,
      "Ġobtain": 3364,
      "Ġprote": 3365,
      "ule": 3366,
      "Ġprice": 3367,
      "´íĵ¨": 3368,
      "Ġsure": 3369,
      "ë¡ľìĦľ": 3370,
      "Ġmeans": 3371,
      "ried": 3372,
      "íħĲ": 3373,
      "Ġë²ł": 3374,
      "Ġstandard": 3375,
      "íĺĪ": 3376,
      "Ġê³ĦìĨį": 3377,
      "yt": 3378,
      "not": 3379,
      "Ġíķ´ê²°": 3380,
      "IS": 3381,
      "ĠíıŃ": 3382,
      "Ġìķ¼": 3383,
      "ê°ĢìļĶ": 3384,
      "ene": 3385,
      "ier": 3386,
      "%,": 3387,
      "Ġless": 3388,
      "ë¯Ģë¡ľ": 3389,
      "OU": 3390,
      "ĠPl": 3391,
      "Ġactivity": 3392,
      "Ġweek": 3393,
      "ĠëĶ°ë¥´": 3394,
      "Ġer": 3395,
      "Ġeconomic": 3396,
      "Ġíİĺ": 3397,
      "Ġdistrib": 3398,
      "minist": 3399,
      "ances": 3400,
      "ì§Ģê°Ģ": 3401,
      "Ġë³Ħ": 3402,
      "orage": 3403,
      "ĠTH": 3404,
      "Ġfree": 3405,
      "Ġtop": 3406,
      "Ġparticular": 3407,
      "Ġinput": 3408,
      "ĠChina": 3409,
      "Ġthought": 3410,
      "Ġaccount": 3411,
      "ĠìŀĳìĹħ": 3412,
      "Ġneg": 3413,
      "ised": 3414,
      "ĠëĦĺ": 3415,
      "ì±Ħ": 3416,
      "ìĭŃìĭľìĺ¤": 3417,
      "Ġmoney": 3418,
      "ìłľë¥¼": 3419,
      "Ġfuture": 3420,
      "Ġë³´ëĤ´": 3421,
      "Ġê³łê°Ŀ": 3422,
      "ìĽĮíģ¬": 3423,
      "ĠìĬ¹": 3424,
      "ĠíķĻìĬµ": 3425,
      "ëĮĢíķĻ": 3426,
      "Ġê±´ê°ķ": 3427,
      "eong": 3428,
      "Ġgeneral": 3429,
      "ĠíıĲ": 3430,
      "val": 3431,
      "ìĨĲ": 3432,
      "Ġleft": 3433,
      "ĠNo": 3434,
      "Ġpress": 3435,
      "Ġspecific": 3436,
      "Ġstudies": 3437,
      "Ġê¸°ì¡´": 3438,
      "60": 3439,
      "ìĦ±ê³¼": 3440,
      "Ġpolicy": 3441,
      "ross": 3442,
      "az": 3443,
      "18": 3444,
      "Ġalways": 3445,
      "ê·¸ëŁ¼": 3446,
      "Ġindivid": 3447,
      "íķĦ": 3448,
      "Ġopt": 3449,
      "Ġthings": 3450,
      "ì°½": 3451,
      "ĠCl": 3452,
      "13": 3453,
      "ì§Ģê³ł": 3454,
      "ĠëĤĺíĥĢëĤ´": 3455,
      "ĠëĪĪ": 3456,
      "Ġconfirmed": 3457,
      "Ġë¸Ķ": 3458,
      "êµĲìľ¡": 3459,
      "ocus": 3460,
      "Ġë¯": 3461,
      "ë¦¬ìĬ¤": 3462,
      "any": 3463,
      "cent": 3464,
      "Ġabove": 3465,
      "These": 3466,
      "Ġfollowing": 3467,
      "Ġê°ĢëĬ¥íķľ": 3468,
      "Ġkeep": 3469,
      "ëĭ¤ë©´": 3470,
      "Ġheld": 3471,
      "Ġê¹Ģ": 3472,
      "Ġproduction": 3473,
      "ìĥģìĿĺ": 3474,
      "abor": 3475,
      "the": 3476,
      "Ġì£¼ìļĶ": 3477,
      "ĠTr": 3478,
      "ĠìķĬìĿĦ": 3479,
      "Ġwa": 3480,
      "ìĦ±ìĹĲ": 3481,
      "Ġê·¸ë£¹": 3482,
      "Ġhist": 3483,
      "ĠíĦ°": 3484,
      "ìłķë³´": 3485,
      "ìĻľ": 3486,
      "Ġëĵ±ìĿĺ": 3487,
      "Ġì²¨": 3488,
      "Ġì¡°ì§ģ": 3489,
      "Ġê²°ê³¼ë¥¼": 3490,
      "Ġnetwork": 3491,
      "ĠëıĮìķĦ": 3492,
      "](": 3493,
      "nam": 3494,
      "Ġside": 3495,
      "ìĽĲìĿ´": 3496,
      "arget": 3497,
      "Ġsignal": 3498,
      "ëĤ¸": 3499,
      "ĠìķĬìķĦ": 3500,
      "Ġapplied": 3501,
      "Ġíļ¨ìľ¨": 3502,
      "Ġíķĺì§Ģ": 3503,
      "Ġhour": 3504,
      "Ġposition": 3505,
      "ware": 3506,
      "aring": 3507,
      "itor": 3508,
      "Ġ199": 3509,
      "ê·¸ëŀĺìĦľ": 3510,
      "Ġfinancial": 3511,
      "Ġcomput": 3512,
      "Ġtrain": 3513,
      "Ġcalc": 3514,
      "Ġaffect": 3515,
      "ĠìŀĲë£Į": 3516,
      "Ġjud": 3517,
      "Ġhappen": 3518,
      "ĠêµŃëĤ´": 3519,
      "ĠëıĻìĿ¼": 3520,
      "Ġregard": 3521,
      "ronic": 3522,
      "iple": 3523,
      "ĠëĲĲ": 3524,
      "Ġì§ĢìĨį": 3525,
      "atory": 3526,
      "ĠíĴĪ": 3527,
      "Ġopp": 3528,
      "cy": 3529,
      "ĠìłĢíĿ¬": 3530,
      "Ġsimilar": 3531,
      "Ġì¡°ê±´": 3532,
      "ĠìµľëĮĢ": 3533,
      "ìĪĺê°Ģ": 3534,
      "íıŃ": 3535,
      "Ġë°ĶìĿ´": 3536,
      "ĠëĮĢíĳľ": 3537,
      "Ġìķķ": 3538,
      "Ġê°ĲìĤ¬": 3539,
      "Ġofficial": 3540,
      "Ġquality": 3541,
      "ëĶ°ëĿ¼": 3542,
      "After": 3543,
      "Ġimplement": 3544,
      "ì¼ĢìĿ´": 3545,
      "Ġactivities": 3546,
      "Ġtyp": 3547,
      "Ġê³µê°Ħ": 3548,
      "Ġassoci": 3549,
      "Ġíıīê·ł": 3550,
      "ĠìŀĲëıĻ": 3551,
      "ëıĦìĹĲ": 3552,
      "ëı¼": 3553,
      "ĠìķĦì§ģ": 3554,
      "Ġë°Ģ": 3555,
      "ìĿ´ë©°": 3556,
      "Ġreported": 3557,
      "Ġperformed": 3558,
      "Ġenter": 3559,
      "Ġmar": 3560,
      "ìĽĲìĿĺ": 3561,
      "Ġê²½íĹĺ": 3562,
      "Ġìļ°ë¦¬ê°Ģ": 3563,
      "Ġbre": 3564,
      "Ġdescrib": 3565,
      "ìģ": 3566,
      "ĠSystem": 3567,
      "ĠìĿ´ë£¨ìĸ´": 3568,
      "gether": 3569,
      "Ġtogether": 3570,
      "Ġobserv": 3571,
      "Ġcalled": 3572,
      "ë¶ĦìĦĿ": 3573,
      "âĪ¼": 3574,
      "ëĨį": 3575,
      "ìłĢíĿ¬": 3576,
      "ĠQ": 3577,
      "ë¦¬ìĹĲ": 3578,
      "ìłĦìĹĲ": 3579,
      "íĨ": 3580,
      "ĠìŀĪìĸ´ìĦľ": 3581,
      "Ġìĸ´ëĶĶ": 3582,
      "Ġsize": 3583,
      "ready": 3584,
      "Ġìĭľìŀ¥": 3585,
      "ĠìĹ¼": 3586,
      "Ġleast": 3587,
      "utes": 3588,
      "ìĹ¬ê¸°": 3589,
      "Ġë¯¿": 3590,
      "ng": 3591,
      "ĠíķĻêµĲ": 3592,
      "hor": 3593,
      "Ġëĳĺ": 3594,
      "hing": 3595,
      "Ġide": 3596,
      "Let": 3597,
      "ote": 3598,
      "Ġevent": 3599,
      "êµ°ìļĶ": 3600,
      "ĠìĤ¬ê±´": 3601,
      "ìŀ¡": 3602,
      "ĠEx": 3603,
      "ìĭľìĹĲ": 3604,
      "Ġpost": 3605,
      "Ġcontact": 3606,
      "Ġregion": 3607,
      "Ġfactors": 3608,
      "ĠìķĦë¬´": 3609,
      "ëĲĲëĭ¤": 3610,
      "Ġê³¨": 3611,
      "Ġindividual": 3612,
      "Ġsurface": 3613,
      "Ġstep": 3614,
      "ves": 3615,
      "ĠìĹ¬ë¶Ģ": 3616,
      "Ġaway": 3617,
      "ê´Ģê³Ħ": 3618,
      "ivity": 3619,
      "Ġable": 3620,
      "hy": 3621,
      "Ġê´Ģì°°": 3622,
      "ĠìĿ¼ìĿ´": 3623,
      "oot": 3624,
      "ĠëıĪ": 3625,
      "Ġëĭ¨ë°±ì§Ī": 3626,
      "ê±°ìķ¼": 3627,
      "ëĵľë¥¼": 3628,
      "Re": 3629,
      "Ġrepresent": 3630,
      "Ġfull": 3631,
      "ëĲ©ëĭĪëĭ¤": 3632,
      "ĠìľłìĤ¬": 3633,
      "ĠGyeong": 3634,
      "Ġë¨¸": 3635,
      "įëĭĪëĭ¤": 3636,
      "Ġë¶Ħë¦¬": 3637,
      "ĠInd": 3638,
      "apt": 3639,
      "Please": 3640,
      "ìłľë¡ľ": 3641,
      "Ġalready": 3642,
      "Ġbi": 3643,
      "Ġê¸°ëĮĢ": 3644,
      "Ġnight": 3645,
      "Ġìĸ´ëł¤": 3646,
      "ĠĠĠ": 3647,
      "ticle": 3648,
      "iation": 3649,
      "Ġflow": 3650,
      "ëĩ": 3651,
      "ë²ķìĿĦ": 3652,
      "Ġê²°íķ©": 3653,
      "ĠMed": 3654,
      "Ġtour": 3655,
      "Ġìļ°ë¦¬ëĬĶ": 3656,
      "Ġdel": 3657,
      "Ġmedical": 3658,
      "Â°": 3659,
      "hem": 3660,
      "ĠëĮĢìĥģìľ¼ë¡ľ": 3661,
      "Ġconditions": 3662,
      "âĻ": 3663,
      "Ġcomb": 3664,
      "ì²ł": 3665,
      "Î¼": 3666,
      "Ġrat": 3667,
      "verage": 3668,
      "ĠìłķíĻķ": 3669,
      "ged": 3670,
      "Ġì²ľ": 3671,
      "ĠëĬ¥": 3672,
      "Ġcollect": 3673,
      "gi": 3674,
      "ê¸°ë¡ľ": 3675,
      "ê¸Ģ": 3676,
      "ĠDNA": 3677,
      "Se": 3678,
      "Ġsorry": 3679,
      "augh": 3680,
      "ps": 3681,
      "Ġëĥ": 3682,
      "ĠìĨĮë¹Ħ": 3683,
      "íķĺê³łìŀĲ": 3684,
      "íķĺëł¤": 3685,
      "reng": 3686,
      "Ġê¸°ê°Ħ": 3687,
      "Ġìłľê°Ģ": 3688,
      "str": 3689,
      "ccess": 3690,
      "Ġkill": 3691,
      "ĠìļĶìĨĮ": 3692,
      "Ġìĸ¼ë§Ī": 3693,
      "Ġpract": 3694,
      "ĠëĲĺëĬĶ": 3695,
      "Ġmillion": 3696,
      "Ġcourse": 3697,
      "ape": 3698,
      "ê·¸ëŁ°": 3699,
      "ìĿ´ëĿ¼ëĬĶ": 3700,
      "Ġrequest": 3701,
      "use": 3702,
      "ê¸°ìĹħ": 3703,
      "ĠìĻĢ": 3704,
      "êµ´": 3705,
      "íĬ¸ìĽĮíģ¬": 3706,
      "Ġê·¸ëŁ¬": 3707,
      "though": 3708,
      "Ġê³µê¸ī": 3709,
      "ë³¼": 3710,
      "14": 3711,
      "Ġbook": 3712,
      "ìĽĲìĿĦ": 3713,
      "ĠëıĦìĭľ": 3714,
      "ably": 3715,
      "Ġë¬¸íĻĶ": 3716,
      "Ġself": 3717,
      "Ġtoday": 3718,
      "Ġdiscuss": 3719,
      "ĠìĻĶ": 3720,
      "íĬ¸ë¥¼": 3721,
      "ëĿ¼ëıĦ": 3722,
      "ember": 3723,
      "íĤ¬": 3724,
      "Ġìµľê·¼": 3725,
      "ëĶ°ëĿ¼ìĦľ": 3726,
      "Ġpriv": 3727,
      "Ġtarget": 3728,
      "Ġìłľì¡°": 3729,
      "Ġlearning": 3730,
      "Ġestim": 3731,
      "Ġë°©íĸ¥": 3732,
      "Ġcannot": 3733,
      "ê°Ĵ": 3734,
      "ĠëĶ°ë¥´ë©´": 3735,
      "izing": 3736,
      "ìŀĦìĿĦ": 3737,
      "Ġdeveloped": 3738,
      "Ġland": 3739,
      "ëģ¼": 3740,
      "ìĹĩ": 3741,
      "Ġcrit": 3742,
      "Ġresponse": 3743,
      "ograph": 3744,
      "acy": 3745,
      "ê²°ê³¼": 3746,
      "Ġìħ": 3747,
      "fact": 3748,
      "ĠìĺĪì¸¡": 3749,
      "Ġver": 3750,
      "oid": 3751,
      "Ġìĸĺê¸°": 3752,
      "idence": 3753,
      "Ġshown": 3754,
      "ìĦľë¥¼": 3755,
      "ST": 3756,
      "Ġsus": 3757,
      "Ġìłľíķľ": 3758,
      "Ġexample": 3759,
      "ĠíĥĦ": 3760,
      "Ġshort": 3761,
      "pro": 3762,
      "Ġproposed": 3763,
      "Ġì¼": 3764,
      "##": 3765,
      "ëĵ¤ìĹĲ": 3766,
      "ì§ĢìĹĲ": 3767,
      "Ġchanges": 3768,
      "ì¼Ģ": 3769,
      "ĠëĮĢë¶Ģë¶Ħ": 3770,
      "Ġmembers": 3771,
      "ìĦ±ìĿĢ": 3772,
      "25": 3773,
      "Ġrad": 3774,
      "Ġturn": 3775,
      "mon": 3776,
      "Ġfive": 3777,
      "ĠìĶ¨": 3778,
      "Ġaccess": 3779,
      "Ġkey": 3780,
      "ĠGo": 3781,
      "ese": 3782,
      "ĠëĬĺ": 3783,
      "Ġì»´íĵ¨": 3784,
      "Ġìłľê±°": 3785,
      "ì§Ģê¸Ī": 3786,
      "Ġë°ĿíĺĶëĭ¤": 3787,
      "man": 3788,
      "Ġë¬´ìĬ¨": 3789,
      "Ġuntil": 3790,
      "idd": 3791,
      "ĠìĤ¼": 3792,
      "Ġmight": 3793,
      "Ġê·¹": 3794,
      "Ġë°©ë²ķìĿĦ": 3795,
      "Ġê·¸ëłĩê²Į": 3796,
      "âĻª": 3797,
      "íķĺìĭľ": 3798,
      "ìľĦë¥¼": 3799,
      "ĩ´": 3800,
      "Ġë°Ķë¡ľ": 3801,
      "Ġconducted": 3802,
      "Ġë¿Ĳ": 3803,
      "ĠìĹ°êµ¬ìĹĲìĦľëĬĶ": 3804,
      "eral": 3805,
      "ëıĦë¡ľ": 3806,
      "ĠìķĬê³ł": 3807,
      "fety": 3808,
      "atis": 3809,
      "Ġhaving": 3810,
      "oud": 3811,
      "Ġë²Į": 3812,
      "Ġservices": 3813,
      "ì£¼ëĬĶ": 3814,
      "Ġíķµ": 3815,
      "rict": 3816,
      "Ġprovided": 3817,
      "ĠMan": 3818,
      "Ġê¼": 3819,
      "ê°ĦìĿĺ": 3820,
      "CT": 3821,
      "let": 3822,
      "istry": 3823,
      "CR": 3824,
      "ĠX": 3825,
      "Ġê¸°ë¡Ŀ": 3826,
      "etic": 3827,
      "ë²½": 3828,
      "rap": 3829,
      "Ġmor": 3830,
      "acher": 3831,
      "usion": 3832,
      "Ġpast": 3833,
      "ê³¨": 3834,
      "Ġexperience": 3835,
      "Ġmeeting": 3836,
      "ëĵľëĬĶ": 3837,
      "Don": 3838,
      "Ġ60": 3839,
      "Ġê²Ģì¶ľ": 3840,
      "Ġworking": 3841,
      "Ġeffects": 3842,
      "ival": 3843,
      "oice": 3844,
      "Ġlayer": 3845,
      "ìĸ´ìĦľ": 3846,
      "Ġì°¾ìķĦ": 3847,
      "Ġgame": 3848,
      "Ġë°°ìĸĳ": 3849,
      "pped": 3850,
      "ì²´ë¥¼": 3851,
      "Ġseen": 3852,
      "ëŃĲ": 3853,
      "AR": 3854,
      "Ġìĸµ": 3855,
      "Ġsum": 3856,
      "Ġì²«": 3857,
      "ĠíķĦìļĶíķĺëĭ¤": 3858,
      "imum": 3859,
      "dro": 3860,
      "ê²ĮìļĶ": 3861,
      "ĠZ": 3862,
      "Ġìī½": 3863,
      "Ġê´ľì°®": 3864,
      "Ġê°Ģì¡±": 3865,
      "ables": 3866,
      "ĠíĬ¹ì§ķ": 3867,
      "Ġê°Ģê²©": 3868,
      "Ġnational": 3869,
      "eter": 3870,
      "ĠíķĺìĺĢëĭ¤": 3871,
      "Ġpot": 3872,
      "obile": 3873,
      "Ġì¶Ķìłķ": 3874,
      "Ġê·¸ëłĩ": 3875,
      "Ġmil": 3876,
      "Ġì²ĺìĿĮ": 3877,
      "70": 3878,
      "ê¸°ìĪł": 3879,
      "Ġmen": 3880,
      "ĠGr": 3881,
      "ê·¸ëħĢëĬĶ": 3882,
      "Ġinflu": 3883,
      "lege": 3884,
      "Ġpurpose": 3885,
      "over": 3886,
      "Ġhospital": 3887,
      "ĠìĦ±ëĬ¥": 3888,
      "Ġstrong": 3889,
      "Ġanything": 3890,
      "Ġdifference": 3891,
      "Ġbecome": 3892,
      "íĺĢ": 3893,
      "ling": 3894,
      "ìĸ´ëĸ": 3895,
      "Ġì§Ģë°©": 3896,
      "ê°ĢëĬĶ": 3897,
      "Ġcontract": 3898,
      "ĠAd": 3899,
      "ì§ĢëıĦ": 3900,
      "íħĮë¦¬ìķĦ": 3901,
      "Ġë¹Ħíķ´": 3902,
      "ĠìĿ´ìķ¼": 3903,
      "Ġê°ľìĿ¸": 3904,
      "ogen": 3905,
      "ĠìĿ´ëŁ°": 3906,
      "Ġfew": 3907,
      "Ġpath": 3908,
      "mb": 3909,
      "íģ¼": 3910,
      "ĺíĶĮ": 3911,
      "Ġbacter": 3912,
      "Ġrisk": 3913,
      "¢°": 3914,
      "íĴ": 3915,
      "ctions": 3916,
      "Ġenergy": 3917,
      "Ġìľłíĺķ": 3918,
      "ressed": 3919,
      "Ġëĸł": 3920,
      "ĠìĤ¬ëŀĮìĿ´": 3921,
      "ìľĦìĽĲ": 3922,
      "Ġdiv": 3923,
      "uro": 3924,
      "Ġë°ľìłĦ": 3925,
      "resp": 3926,
      "Ġspace": 3927,
      "urance": 3928,
      "ë¢°": 3929,
      "ude": 3930,
      "Ġìķ¡": 3931,
      "Ġclear": 3932,
      "sh": 3933,
      "Ġtrad": 3934,
      "mm": 3935,
      "ison": 3936,
      "íĨµëł¹": 3937,
      "ê°Ļ": 3938,
      "ëıĮ": 3939,
      "ëĦ·": 3940,
      "ĠìĿ´ìĸ´": 3941,
      "ties": 3942,
      "Ġculture": 3943,
      "ìº": 3944,
      "ĠìĤ¬ëŀĳ": 3945,
      "alysis": 3946,
      "ĠìŀĲê¸°": 3947,
      "ë¨¼": 3948,
      "Ġê°Ģìł¸": 3949,
      "Ġê²ģ": 3950,
      "´´": 3951,
      "ĠìĿ¸íķ´": 3952,
      "ources": 3953,
      "hold": 3954,
      "ĠìĦ¤ì¹ĺ": 3955,
      "ê³³": 3956,
      "ĠêµŃìłľ": 3957,
      "íĤ¨": 3958,
      "Ġsepar": 3959,
      "Ġsituation": 3960,
      "Ġë¹Ħìļ©": 3961,
      "Ġdoesn": 3962,
      "Ġpattern": 3963,
      "Ġfrequ": 3964,
      "ìĻĶ": 3965,
      "16": 3966,
      "Un": 3967,
      "ê·¸ëĵ¤ìĿĢ": 3968,
      "ìĥģìĿ´": 3969,
      "ê²łìĸ´ìļĶ": 3970,
      "Ġsecurity": 3971,
      "Ex": 3972,
      "ences": 3973,
      "Ġben": 3974,
      "Ġíķ´ìĦĿ": 3975,
      "ëĦĪì§Ģ": 3976,
      "ĠAl": 3977,
      "Ġfurther": 3978,
      "ĠìĿ´ë²Ī": 3979,
      "Ġíĭ": 3980,
      "ĠìĹĨìĿ´": 3981,
      "Ġanalyzed": 3982,
      "Ġdetail": 3983,
      "ìĿĺë¥¼": 3984,
      "earch": 3985,
      "ìļ±": 3986,
      "alf": 3987,
      "istic": 3988,
      "ì§ĢìĹŃ": 3989,
      "Ġë°ĽìķĦ": 3990,
      "Ġreceived": 3991,
      "íĬ¹íŀĪ": 3992,
      "ĠìķĦì£¼": 3993,
      "Ġwar": 3994,
      "obal": 3995,
      "Ġtre": 3996,
      "Ġrecord": 3997,
      "Ġê±°ìĿĺ": 3998,
      "ìĽĢìĿ´": 3999,
      "Ġstreng": 4000,
      "ique": 4001,
      "ĠíĬ¹ìłķ": 4002,
      "Ġë³Ģê²½": 4003,
      "Ġhot": 4004,
      "Ġste": 4005,
      "Ġìĥģê´Ģ": 4006,
      "ĠìłĦíĻĶ": 4007,
      "ĠíĪ¬ìŀĲ": 4008,
      "ĠìļĶì²Ń": 4009,
      "ĠíļĮìĤ¬": 4010,
      "ĠìĿ¼ìĸ´": 4011,
      "of": 4012,
      "Con": 4013,
      "Â±": 4014,
      "Ġareas": 4015,
      "Ġprep": 4016,
      "Ġfocus": 4017,
      "Ġë³´ìĿ¸": 4018,
      "ìķĪëħķ": 4019,
      "ìĪĺëĬĶ": 4020,
      "ĠìĿ´ìłľ": 4021,
      "íķĺê±°ëĤĺ": 4022,
      "hic": 4023,
      "ĠIntern": 4024,
      "Ġê¸°ì´Ī": 4025,
      "22": 4026,
      "Ġokay": 4027,
      "Ġmaking": 4028,
      "chan": 4029,
      "ëŁīìĿĦ": 4030,
      "Ġíľ´": 4031,
      "Ġgroups": 4032,
      "ĠëĮĢìĿĳ": 4033,
      "ê²łìĸ´": 4034,
      "Ġkid": 4035,
      "Ġë²Īì§¸": 4036,
      "ë¡ľëĤĺ": 4037,
      "{\\": 4038,
      "ëĿ¼ìĿ¸": 4039,
      "ĠServ": 4040,
      "ĠìĦľìļ¸": 4041,
      "Ġê±": 4042,
      "ìĹĦ": 4043,
      "Ġrele": 4044,
      "Department": 4045,
      "ror": 4046,
      "won": 4047,
      "ĠìĥģëĮĢ": 4048,
      "Ġwin": 4049,
      "ìĿ´ëĵľ": 4050,
      "based": 4051,
      "Ġsingle": 4052,
      "ĠìĿ¼ë³¸": 4053,
      "cell": 4054,
      "Ġìĺ¤ëĬĺ": 4055,
      "Ġìĭ¤ìĭľìĺĪ": 4056,
      "ĠìĿĢ": 4057,
      "oung": 4058,
      "ĠìķĬëĬĶëĭ¤": 4059,
      "íĥĪ": 4060,
      "ĠìķĦëĭĮ": 4061,
      "Ġsent": 4062,
      "ĠHy": 4063,
      "ĠUnited": 4064,
      "ĠìĿ´ìĥģìĿĺ": 4065,
      "Ġëª©ìłģ": 4066,
      "Ġdone": 4067,
      "Ġbuilding": 4068,
      "Ġhope": 4069,
      "yc": 4070,
      "Ġz": 4071,
      "ames": 4072,
      "Ġsever": 4073,
      "Ġíķ´ìķ¼": 4074,
      "ìĥģìĹĲ": 4075,
      "ĠSouth": 4076,
      "su": 4077,
      "¨ë¦¬": 4078,
      "Ġextract": 4079,
      "ëĭ¤ë¥¸": 4080,
      "Ġpositive": 4081,
      "Ġbuy": 4082,
      "ĠNew": 4083,
      "Ġearly": 4084,
      "Now": 4085,
      "ìĬ¤íģ¬": 4086,
      "ĠìĹĨìĬµëĭĪëĭ¤": 4087,
      "Ġíģ¬ê²Į": 4088,
      "aim": 4089,
      "Ġexplain": 4090,
      "Ġëª°": 4091,
      "uted": 4092,
      "Ġevalu": 4093,
      "PS": 4094,
      "Ġë§Įëĵ¤ìĸ´": 4095,
      "Ġtold": 4096,
      "ĠëĦ¤íĬ¸ìĽĮíģ¬": 4097,
      "ê²łëĭ¤": 4098,
      "Ġisol": 4099,
      "Ġrespectively": 4100,
      "Ġíı¬íķ¨íķł": 4101,
      "Ġì²ł": 4102,
      "Ġìķħ": 4103,
      "ìŀĸìķĦìļĶ": 4104,
      "Ġfail": 4105,
      "CO": 4106,
      "ED": 4107,
      "Ġproblems": 4108,
      "Ġavail": 4109,
      "Ġexc": 4110,
      "estic": 4111,
      "atisf": 4112,
      "ë¦½ëĭĪëĭ¤": 4113,
      "Ġlog": 4114,
      "Ġê¸°ë³¸": 4115,
      "Cl": 4116,
      "Since": 4117,
      "Ġrespons": 4118,
      "Ġê·¸ìĿĺ": 4119,
      "aster": 4120,
      "Ġlooking": 4121,
      "els": 4122,
      "rial": 4123,
      "ì§ĢìĿĺ": 4124,
      "imal": 4125,
      "Ġìłľìŀĳ": 4126,
      "ĠìĤ¬ëŀĮëĵ¤ìĿ´": 4127,
      "Ġphys": 4128,
      "Ġknown": 4129,
      "Ġcommunication": 4130,
      "íĥķ": 4131,
      "Ġmot": 4132,
      "Ġappear": 4133,
      "idered": 4134,
      "ĠíĳľíĺĦ": 4135,
      "Ġë¶Ħìķ¼": 4136,
      "Ġeng": 4137,
      "Ġê·¸ëĥ¥": 4138,
      "Ġparent": 4139,
      "ìĦ±ìĿĺ": 4140,
      "ëłĪìĬ¤": 4141,
      "ìŀĲìĿ¸": 4142,
      "ension": 4143,
      "wang": 4144,
      "Ġdra": 4145,
      "Ġìłĳê·¼": 4146,
      "80": 4147,
      "Ġtou": 4148,
      "ĠUS": 4149,
      "ìĻĦ": 4150,
      "íĶĦë¡ľ": 4151,
      "ĠëĮĢíķĻ": 4152,
      "Ġnat": 4153,
      "Ġselected": 4154,
      "Ġut": 4155,
      "Ġtransfer": 4156,
      "Therefore": 4157,
      "Ġcame": 4158,
      "Ġnorm": 4159,
      "irl": 4160,
      "Ġê·ľìłķ": 4161,
      "ery": 4162,
      "Ġforeign": 4163,
      "Ġrole": 4164,
      "Ġfr": 4165,
      "Ġsym": 4166,
      "Ġsequ": 4167,
      "íĻĶëĲľ": 4168,
      "ê·¸ê²ĥìĿĢ": 4169,
      "ì¤ĺ": 4170,
      "ê´Ģë¦¬": 4171,
      "Ġap": 4172,
      "ĠìĦľë¡ľ": 4173,
      "Ġìµľê³ł": 4174,
      "ET": 4175,
      "Ġtext": 4176,
      "ĠìĥĺíĶĮ": 4177,
      "Ġconsidered": 4178,
      "Ġ22": 4179,
      ".,": 4180,
      "ithm": 4181,
      "Ġë³´ëĭ¤": 4182,
      "ìĦ¸íı¬": 4183,
      "Ġannoun": 4184,
      "ĠëĮĢíķĺìĹ¬": 4185,
      "Ġadminist": 4186,
      "¾¸": 4187,
      "Ġëį°ìĿ´íĦ°ë¥¼": 4188,
      "ounds": 4189,
      "ĠíĿ¬": 4190,
      "Ġmess": 4191,
      "íķ¨ìľ¼ë¡ľìį¨": 4192,
      "Ġabs": 4193,
      "Ġinstit": 4194,
      "ental": 4195,
      "ĠìĤ¬ë¡Ģ": 4196,
      "ìĪĻ": 4197,
      "ìĪĺë¡Ŀ": 4198,
      "Ġcity": 4199,
      "ĠCenter": 4200,
      "Ġsyn": 4201,
      "Ġëľ": 4202,
      "ìĿ¼ìĿĦ": 4203,
      "Ġcontinu": 4204,
      "Ġremain": 4205,
      "Ġmicro": 4206,
      "Ġprevent": 4207,
      "Ġcommon": 4208,
      "íķĺìĺĢìľ¼ë©°": 4209,
      "Ġcer": 4210,
      "íķĺëĬĶëį°": 4211,
      "Ġet": 4212,
      "ëªħìĿ´": 4213,
      "Ġcenter": 4214,
      "Ġteacher": 4215,
      "Ġinvention": 4216,
      "Ġage": 4217,
      "Ġimm": 4218,
      "ĠëĨĵ": 4219,
      "Thank": 4220,
      "stitute": 4221,
      "Ġì§Ģìłķ": 4222,
      "ĠíĸīëıĻ": 4223,
      "Ġfeature": 4224,
      "ront": 4225,
      "íħĲì¸ł": 4226,
      "ĠìĺĪìłķ": 4227,
      "Ġshows": 4228,
      "----": 4229,
      "Ġrequired": 4230,
      "Ġoffice": 4231,
      "íİ´": 4232,
      "Ġtermin": 4233,
      "ES": 4234,
      "ĠCol": 4235,
      "ĠpH": 4236,
      "Sh": 4237,
      "Ġmom": 4238,
      "utions": 4239,
      "Ġsuccess": 4240,
      "ìĿ¸ì§Ģ": 4241,
      "ĠíĥĲ": 4242,
      "Ġcorresp": 4243,
      "ìķĺìĸ´": 4244,
      "Ġê´Ģëł¨ëĲľ": 4245,
      "Kim": 4246,
      "ëĳ": 4247,
      "Ġvalues": 4248,
      "Ġsignificantly": 4249,
      "íħĶ": 4250,
      "osis": 4251,
      "Ġpain": 4252,
      "for": 4253,
      "Ġmedia": 4254,
      "Ġê°Ģì§Ħ": 4255,
      "ìĹĪìĸ´": 4256,
      "ìĿ¸ëį°": 4257,
      "Ġ&": 4258,
      "Ġauthor": 4259,
      "Ġ23": 4260,
      "íķĳ": 4261,
      "Ġsuper": 4262,
      "Ġ21": 4263,
      "Ġestablish": 4264,
      "ëĶ©": 4265,
      "Ġìĭľíĸī": 4266,
      "ton": 4267,
      "olution": 4268,
      "ĠìĦ±ê³µ": 4269,
      "iments": 4270,
      "¶ģ": 4271,
      "Ġscreen": 4272,
      "íı°": 4273,
      "Ġquestion": 4274,
      "íĻĺê²½": 4275,
      "iol": 4276,
      "ĠíĮĲë§¤": 4277,
      "ĠìķĪìłķ": 4278,
      "ĠíĿ¡": 4279,
      "Then": 4280,
      "ëŀĲ": 4281,
      "Ġagree": 4282,
      "ĠíĶ¼íķ´": 4283,
      "íĦ¸": 4284,
      "rit": 4285,
      "Our": 4286,
      "ched": 4287,
      "Ġbelieve": 4288,
      "íļĮìĿĺ": 4289,
      "Can": 4290,
      "Ġrelative": 4291,
      "ineering": 4292,
      "ì¹ł": 4293,
      "ëª»": 4294,
      "Ġë¬¸ìłľê°Ģ": 4295,
      "Ġnear": 4296,
      "Ġë¬´ìĹĩ": 4297,
      "Ġë°©ë¬¸": 4298,
      "Ġëĵ±ìĿ´": 4299,
      "ĠìĿĺë£Į": 4300,
      "Ġpoly": 4301,
      "ĠìłķìĿĺ": 4302,
      "Ġach": 4303,
      "Ġêµ¬íĺĦ": 4304,
      "Ġweight": 4305,
      "ones": 4306,
      "Ġapply": 4307,
      "ìĨĮë¥¼": 4308,
      "Ġê³ĦìĤ°": 4309,
      "íĸĪìĸ´": 4310,
      "ĠìĤ´íİ´": 4311,
      "Ġresist": 4312,
      "ìĭľìĬ¤íħľ": 4313,
      "ëıĦìĻĢ": 4314,
      "ĠìłĦê¸°": 4315,
      "ëĩ¨": 4316,
      "ecause": 4317,
      "Ġenough": 4318,
      "Ġdig": 4319,
      "Ġincreasing": 4320,
      "vey": 4321,
      "Ġmethods": 4322,
      "yung": 4323,
      "Ġtook": 4324,
      "Ġpercent": 4325,
      "ê³¡": 4326,
      "ìĺ¤ëĬĺ": 4327,
      "Ġorig": 4328,
      "ìķĻ": 4329,
      "pping": 4330,
      "ë¡Ń": 4331,
      "ëŁīìĿ´": 4332,
      "Ġreturn": 4333,
      "ulations": 4334,
      "ĠëĮĢíĨµëł¹": 4335,
      "ĠWhat": 4336,
      "Ġwomen": 4337,
      "Ġìĺģìĥģ": 4338,
      "Ġê²ĢìĤ¬": 4339,
      "Ġclose": 4340,
      "ìļ´ëį°": 4341,
      "ĠìĿ¸ìłķ": 4342,
      "Ġcle": 4343,
      "Ġinternational": 4344,
      "ìĸ´ëıĦ": 4345,
      "ĠìĭľíĹĺ": 4346,
      "Ġì¦Ĳ": 4347,
      "Ġpolit": 4348,
      "gor": 4349,
      "itte": 4350,
      "ìĿ´ë²Ī": 4351,
      "ĠìĬ¤íĬ¸": 4352,
      "ocu": 4353,
      "ĠCo": 4354,
      "Ġthird": 4355,
      "Ġë¶Ħë¥ĺ": 4356,
      "pid": 4357,
      "íĮĢ": 4358,
      "ì°¬": 4359,
      "Ġparty": 4360,
      "ĠíĮĢ": 4361,
      "Ġcomplete": 4362,
      "Ġbad": 4363,
      "ĠCont": 4364,
      "ì´Ŀ": 4365,
      "Ġincluded": 4366,
      "Ġbehav": 4367,
      "Ġìĥģíĺ¸": 4368,
      "cri": 4369,
      "êµ¬ëĤĺ": 4370,
      "Ġsaying": 4371,
      "ault": 4372,
      "Ġformed": 4373,
      "Ġë³ĳìĽĲ": 4374,
      "Ġprivate": 4375,
      "Ġê¸°ëĭ¤": 4376,
      "Ġëī´": 4377,
      "Ġphot": 4378,
      "idents": 4379,
      "ĠAg": 4380,
      "ĠìŀĶ": 4381,
      "Ġexperiment": 4382,
      "eon": 4383,
      "Ġì¡°ìłĪ": 4384,
      "Ġì²¨ê°Ģ": 4385,
      "Ġblock": 4386,
      "AS": 4387,
      "Ġinte": 4388,
      "Ġì´ī": 4389,
      "ë³´ê³ł": 4390,
      "Ġdisease": 4391,
      "íĸĪìĸ´ìļĶ": 4392,
      "ëĶĶìĸ´": 4393,
      "ump": 4394,
      "Ġíĸ¥ìĥģ": 4395,
      "Ġprob": 4396,
      "pecial": 4397,
      "ĠìĤ¬ìļ©íķł": 4398,
      "Ġfilm": 4399,
      "ufact": 4400,
      "pper": 4401,
      "ì§Ģë§ī": 4402,
      "ìĹĪìĬµëĭĪëĭ¤": 4403,
      "ĠAnd": 4404,
      "Ġseveral": 4405,
      "Ġê±°ëŀĺ": 4406,
      "Ġì£¼ë¬¸": 4407,
      "íĶĮëłĪìĿ´": 4408,
      "Ġëĸ¨ìĸ´": 4409,
      "Ġwent": 4410,
      "Ġmedium": 4411,
      "Ġì»´íĵ¨íĦ°": 4412,
      "Ġdescribed": 4413,
      "ë§ĪíĬ¸": 4414,
      "With": 4415,
      "oad": 4416,
      "ìŀ¥ìĹĲìĦľ": 4417,
      "Ġdemand": 4418,
      "ĠìŀĪìľ¼": 4419,
      "Ġdetermined": 4420,
      "ëī´": 4421,
      "Ġì»¨": 4422,
      "ĠìŀĲìĹ°": 4423,
      "aut": 4424,
      "ON": 4425,
      "Ġexec": 4426,
      "epend": 4427,
      "Ġobtained": 4428,
      "ĠProv": 4429,
      "ai": 4430,
      "íĸĪëįĺ": 4431,
      "ĠIs": 4432,
      "Ġaverage": 4433,
      "ĠíķĦìļĶê°Ģ": 4434,
      "ìłķë¶Ģ": 4435,
      "ê³¼ìĿĺ": 4436,
      "Ġë³´ìĺĢëĭ¤": 4437,
      "gorithm": 4438,
      "Ġur": 4439,
      "ĠíĨµìĭł": 4440,
      "Ġmanag": 4441,
      "side": 4442,
      "ìĽ¨ìĸ´": 4443,
      "bs": 4444,
      "mission": 4445,
      "ĠìĭĿíĴĪ": 4446,
      "Ġì¶©ë¶Ħ": 4447,
      "Ġìĭ¤íĸī": 4448,
      "Ġlive": 4449,
      "Ġvehic": 4450,
      "ìĬ¤ìĿĺ": 4451,
      "Ġshare": 4452,
      "Ġìĥī": 4453,
      "Ġstorage": 4454,
      "resident": 4455,
      "ĠëĤ®ìĿĢ": 4456,
      "Ġì¸¡ë©´": 4457,
      "º¼": 4458,
      "ë¿Ĳ": 4459,
      "ĠìµľìĨĮ": 4460,
      "ìĿ´ìłľ": 4461,
      "rug": 4462,
      "Ġë¨¼": 4463,
      "Ġcoop": 4464,
      "Ġstay": 4465,
      "Ġenc": 4466,
      "iff": 4467,
      "Ġes": 4468,
      "meric": 4469,
      "ì²´ê°Ģ": 4470,
      "Are": 4471,
      "ê¸°ê´Ģ": 4472,
      "Ġmut": 4473,
      "ëĬĶëĭ¤": 4474,
      "Ġembodiment": 4475,
      "ë¦¬ì¦ĺ": 4476,
      "Ġadded": 4477,
      "OR": 4478,
      "ĠëĤ´ë¶Ģ": 4479,
      "ëĦĮ": 4480,
      "Ġpurch": 4481,
      "ĠíĨµíķľ": 4482,
      "\",": 4483,
      "ĠëķĮë¬¸ìĿ´ëĭ¤": 4484,
      "ê·¸ëłĩ": 4485,
      "ĠìĹ¬íĸī": 4486,
      "ceed": 4487,
      "velopment": 4488,
      "ittee": 4489,
      "aken": 4490,
      "IC": 4491,
      "Ġë¹Ħìľ¨": 4492,
      "ëłĮ": 4493,
      "ĠëĨĢ": 4494,
      "Ġlearn": 4495,
      "Ġconfig": 4496,
      "Ġìĥģëĭ¹": 4497,
      "ached": 4498,
      "Ġexisting": 4499,
      "vention": 4500,
      "anks": 4501,
      "Ġblood": 4502,
      "ìĽĲìĿĢ": 4503,
      "ëªħìĿĦ": 4504,
      "ìĿ´ê²ĥìĿĢ": 4505,
      "ĠìºĲ": 4506,
      "ĠìĤ¬ì§Ħ": 4507,
      "Ġsource": 4508,
      "One": 4509,
      "sec": 4510,
      "ising": 4511,
      "II": 4512,
      "ĠìĤ¬ê³ł": 4513,
      "ĠìŀĪì§Ģ": 4514,
      "Ġalong": 4515,
      "Ġstrateg": 4516,
      "ctor": 4517,
      "Ġwanted": 4518,
      "17": 4519,
      "ortun": 4520,
      "ĠSu": 4521,
      "Ġvide": 4522,
      "ĠìĹ°ëĿ½": 4523,
      "Ġclaim": 4524,
      "gin": 4525,
      "Ġface": 4526,
      "Ġdirection": 4527,
      "iddle": 4528,
      "Ġterms": 4529,
      "Ġvisit": 4530,
      "Ġrepl": 4531,
      "Ġhours": 4532,
      "Ġbit": 4533,
      "Ġonce": 4534,
      "ìĿ´íģ¬": 4535,
      "Ġadj": 4536,
      "ĠìĿ¼ìĿĦ": 4537,
      "Ġintegr": 4538,
      "êµŃìĿĺ": 4539,
      "ìľ¼ë¡ľë¶ĢíĦ°": 4540,
      "ĠLee": 4541,
      "Ġever": 4542,
      "Ġsoon": 4543,
      "Ġê·¸ëĬĶ": 4544,
      "ĠìĦľë²Ħ": 4545,
      "Ġmonths": 4546,
      "ĠìĹĦë§Ī": 4547,
      "ĠìĤ¬íķŃ": 4548,
      "ury": 4549,
      "ĠìĿ´ëĬĶ": 4550,
      "Ġpromot": 4551,
      "Ġê¸Ģ": 4552,
      "Ġlater": 4553,
      "Ġbase": 4554,
      "cheon": 4555,
      "ì²Ļ": 4556,
      "ĠëĲĺìĸ´": 4557,
      "Ġelectronic": 4558,
      "Ġspecies": 4559,
      "Ġê°ĻìķĦ": 4560,
      "Look": 4561,
      "ì½ĺ": 4562,
      "ĠIm": 4563,
      "ìĭ±": 4564,
      "ĠìĹŃíķłìĿĦ": 4565,
      "ume": 4566,
      "Ġbenef": 4567,
      "Ġserver": 4568,
      "osition": 4569,
      "Ġcut": 4570,
      "íķľëĭ¤ëĬĶ": 4571,
      "Ġtouch": 4572,
      "ĠìĪĺìĭł": 4573,
      "Ġassociated": 4574,
      "Ġlevels": 4575,
      "Ġtypes": 4576,
      "ĠInstitute": 4577,
      "ëĭ¹ìĭłìĿĢ": 4578,
      "Ġpack": 4579,
      "Ġflu": 4580,
      "ì½ľ": 4581,
      "Ġcertain": 4582,
      "Ġinit": 4583,
      "Ġìĸµìłľ": 4584,
      "Ġìļ´ëıĻ": 4585,
      "ĠíĥĪ": 4586,
      "ml": 4587,
      "íĹĪ": 4588,
      "Ġíķĺì§Ģë§Į": 4589,
      "Ġstop": 4590,
      "Ġavailable": 4591,
      "ĠíĴį": 4592,
      "ĠìŀĪìĿĮìĿĦ": 4593,
      "Ġprotein": 4594,
      "Ġrecomm": 4595,
      "ì¿": 4596,
      "icine": 4597,
      "ules": 4598,
      "íıĲ": 4599,
      "ì³¤": 4600,
      "Ġoutput": 4601,
      "ìķĪìĿĦ": 4602,
      "ĠëĦ¤ê°Ģ": 4603,
      "Ġcontroll": 4604,
      "Ġcontents": 4605,
      "Ġfall": 4606,
      "Ġê¸°ìĸµ": 4607,
      "Ġì§Ħì§ľ": 4608,
      "ë¬¼ìĿ´": 4609,
      "ĠìĺĪìĥģ": 4610,
      "ĠìļĶìĿ¸": 4611,
      "ĠìĹĨìĹĪëĭ¤": 4612,
      "Ġcreat": 4613,
      "Ġsatisf": 4614,
      "Ġë§Įì¡±": 4615,
      "ìĬ¬": 4616,
      "Ġëĭ¹ìĭłìĿ´": 4617,
      "Ġcause": 4618,
      "Ġobserved": 4619,
      "Ġgre": 4620,
      "Ġneeds": 4621,
      "Ġsite": 4622,
      "Ġëª©íĳľ": 4623,
      "Ġconcent": 4624,
      "ë´ī": 4625,
      "íĶĦíĬ¸": 4626,
      "ëıĻìķĪ": 4627,
      "Ġcompon": 4628,
      "Ġwhole": 4629,
      "ĠíĬ¹ë³Ħ": 4630,
      "ìĩĦ": 4631,
      "ëĦ¤ê°Ģ": 4632,
      "gment": 4633,
      "ë¦¬ìĿĺ": 4634,
      "ĠíĮĮìķħ": 4635,
      "Ġê²½ìŁģ": 4636,
      "Ġê·łì£¼": 4637,
      "ëŁ´": 4638,
      "ams": 4639,
      "Ġfactor": 4640,
      "Ġwind": 4641,
      "iding": 4642,
      "ĠìłĦëĭ¬": 4643,
      "Ġactually": 4644,
      "iency": 4645,
      "Ġê²ĢíĨł": 4646,
      "rol": 4647,
      "iety": 4648,
      "ĠPh": 4649,
      "ê°ĢëĬ¥": 4650,
      "Ġfar": 4651,
      "Ġë°Ķëŀ": 4652,
      "imate": 4653,
      "Ġë¹Ī": 4654,
      "Ġmind": 4655,
      "ĠGu": 4656,
      "ìĬµëĭĪê¹Į": 4657,
      "ìĽł": 4658,
      "Ġconcentration": 4659,
      "ĠPark": 4660,
      "Ġë³´ìĿ¸ëĭ¤": 4661,
      "onding": 4662,
      "sw": 4663,
      "Ġacqu": 4664,
      "Ġcat": 4665,
      "Ġì¤ĳìĭ¬ìľ¼ë¡ľ": 4666,
      "ĠìĨ¡": 4667,
      "Because": 4668,
      "ë®": 4669,
      "Ġhalf": 4670,
      "ither": 4671,
      "ĠíĬ¹íŀĪ": 4672,
      "ìĿ¼ìĹĲ": 4673,
      "ĠìĹ¬ìŀĲ": 4674,
      "Ġsend": 4675,
      "Ġelectro": 4676,
      "medi": 4677,
      "ì¼ĢìĿ´ìħĺ": 4678,
      "Ġë´¤": 4679,
      "by": 4680,
      "CC": 4681,
      "ĠëıĻìŀĳ": 4682,
      "ĠStates": 4683,
      "Ġê³Ħìķ½": 4684,
      "uration": 4685,
      "Ġìłķìĥģ": 4686,
      "Ġsoft": 4687,
      "Ġíĳľë©´": 4688,
      "ĠOr": 4689,
      "Ġincome": 4690,
      "ìĤ¬íļĮ": 4691,
      "Ġê°Ģìļ´ëį°": 4692,
      "ĠìĪĺì§ĳ": 4693,
      "orn": 4694,
      "ìĤ¬ìĹħ": 4695,
      "Ġinstall": 4696,
      "Ġheat": 4697,
      "ëħĦìĹĲ": 4698,
      "Ġmanufact": 4699,
      "Ġinsurance": 4700,
      "ask": 4701,
      "±ìłķ": 4702,
      "Ġprinc": 4703,
      "view": 4704,
      "Ġrange": 4705,
      "IT": 4706,
      "Ġgrad": 4707,
      "Ġsafety": 4708,
      "Ġreview": 4709,
      "ĠBus": 4710,
      "Ġemerg": 4711,
      "Ġill": 4712,
      "Ġeasy": 4713,
      "Ġglobal": 4714,
      "itation": 4715,
      "ìŀ¥ìĿĺ": 4716,
      "Ġcent": 4717,
      "ëŀľëĵľ": 4718,
      "Ġyet": 4719,
      "Ġsix": 4720,
      "Ġlocated": 4721,
      "olic": 4722,
      "Ġvac": 4723,
      "Ġdeath": 4724,
      "ì¹Ń": 4725,
      "ë²¤": 4726,
      "Ġê½": 4727,
      "ĠìĤ¶": 4728,
      "Ġë¬¸ìłľë¥¼": 4729,
      "Ġcreate": 4730,
      "ì¹ĺê°Ģ": 4731,
      "Ġfra": 4732,
      "OS": 4733,
      "Ġê¸Īìľµ": 4734,
      "Ġpressure": 4735,
      "ìĤ¬ìļ©": 4736,
      "ĠìĹĶ": 4737,
      "Ġbar": 4738,
      "Ġloss": 4739,
      "Ġstage": 4740,
      "Ġìĸ¼ë§ĪëĤĺ": 4741,
      "ĠìĥģíĴĪ": 4742,
      "ĠìľłìłĦìŀĲ": 4743,
      "ĠëıĦìĻĢ": 4744,
      "Ġ80": 4745,
      "Ġdomestic": 4746,
      "ountain": 4747,
      "EC": 4748,
      "Ġissue": 4749,
      "ï¬": 4750,
      "Ġtrying": 4751,
      "Ġê²ĥëıĦ": 4752,
      "Ġdocu": 4753,
      "Ġcaused": 4754,
      "Ġnews": 4755,
      "Ġdeal": 4756,
      "Ġratio": 4757,
      "ê¸ĪìĿĦ": 4758,
      "Ġinvol": 4759,
      "Ġpatient": 4760,
      "Ġtravel": 4761,
      "Ġê¸°íļĮ": 4762,
      "Just": 4763,
      "Ġmiss": 4764,
      "ê°Ģë¥¼": 4765,
      "rences": 4766,
      "ìĬ¤ëĬĶ": 4767,
      "ixed": 4768,
      "Ġtraining": 4769,
      "Although": 4770,
      "ìµľê·¼": 4771,
      "Ġê²Ģìĥī": 4772,
      "Ġexpand": 4773,
      "ĠìŀĲìľł": 4774,
      "ë¥´ê²Į": 4775,
      "ha": 4776,
      "ored": 4777,
      "Ġsystems": 4778,
      "inese": 4779,
      "Ġë°ľíĳľ": 4780,
      "aces": 4781,
      "ĠDae": 4782,
      "Ġë²ĶìľĦ": 4783,
      "Ġíķ´ìļĶ": 4784,
      "ĠíĨµíķ©": 4785,
      "Ġcard": 4786,
      "ãĢ": 4787,
      "ëłµ": 4788,
      "entral": 4789,
      "íĺĦìŀ¬": 4790,
      "Ġnatural": 4791,
      "Ġì°¨ìĿ´ê°Ģ": 4792,
      "ĠìĪĻ": 4793,
      "Ġì½Ķë¡ľëĤĺ": 4794,
      "tt": 4795,
      "Ġì¦ī": 4796,
      "Ġsmart": 4797,
      "ëŀ«": 4798,
      "Ġreceive": 4799,
      "Ġsearch": 4800,
      "inary": 4801,
      "21": 4802,
      "Ġê²°ê³¼ëĬĶ": 4803,
      "ermine": 4804,
      "íķ¨ìĿĦ": 4805,
      "ĠìĨĮê°ľ": 4806,
      "Ġfire": 4807,
      "ìĭľëĬĶ": 4808,
      "arant": 4809,
      "Ġele": 4810,
      "ê²¼": 4811,
      "Ġmaintain": 4812,
      "bon": 4813,
      "Ġhistory": 4814,
      "co": 4815,
      "Ġìµľìłģ": 4816,
      "AM": 4817,
      "ìĬ¤ê°Ģ": 4818,
      "Ġê°ľëħĲ": 4819,
      "Ġinvestment": 4820,
      "Ġë§Īëł¨": 4821,
      "Some": 4822,
      "Ġê²ģëĭĪëĭ¤": 4823,
      "Ġ26": 4824,
      "ĠIT": 4825,
      "Ġevaluation": 4826,
      "Ġë°¤": 4827,
      "Ġord": 4828,
      "ìĭľíĤ¤ëĬĶ": 4829,
      "ì´ī": 4830,
      "Ġê°ĢëĬ¥ìĦ±ìĿ´": 4831,
      "Ġsamples": 4832,
      "Ġ28": 4833,
      "Ġ/": 4834,
      "Ġchanged": 4835,
      "ators": 4836,
      "ìĭľíĤ¬": 4837,
      "ìŀĲëĵ¤ìĿĢ": 4838,
      "ĠìĺģíĻĶ": 4839,
      "ĠëĮĢíķ´ìĦľ": 4840,
      "Ġstatus": 4841,
      "ë¶ĦìĿ´": 4842,
      "°ëĭ¤": 4843,
      "Ġcomplex": 4844,
      "ìŀĪëĬĶ": 4845,
      "Ġconcept": 4846,
      "esign": 4847,
      "Ġaud": 4848,
      "Ġê´Ģê´ĳ": 4849,
      "ĠThat": 4850,
      "ĠSchool": 4851,
      "Ġìłķì¹ĺ": 4852,
      "ê³Ħë¥¼": 4853,
      "ĠëĦ£": 4854,
      "íķĺìĺĢê³ł": 4855,
      "erc": 4856,
      "ìŀ¥ìĹĲ": 4857,
      "oor": 4858,
      "Pro": 4859,
      "Ġhol": 4860,
      "Ġeffective": 4861,
      "Ġê³µëıĻ": 4862,
      "itional": 4863,
      "Ġrequire": 4864,
      "ëĵĪ": 4865,
      "Ġë§Ľ": 4866,
      "ĸìĹĲ": 4867,
      "íĸĪëĭ¤ê³ł": 4868,
      "Ġfront": 4869,
      "ë°ĶìĿ´": 4870,
      "ĠíĮ¨íĦ´": 4871,
      "ĠìłĢëĬĶ": 4872,
      "ĠìŀĳìĿĢ": 4873,
      "Ġmember": 4874,
      "sel": 4875,
      "ĠíĻķëĮĢ": 4876,
      "time": 4877,
      "Ġê²½ê¸°": 4878,
      "Ġdetermine": 4879,
      "Ġëħ¸ëł¥": 4880,
      "Ġêµ¬ë§¤": 4881,
      "ĠíķŃìĥģ": 4882,
      "ĠëıĦìŀħ": 4883,
      "Ġmobile": 4884,
      "Ġë¶Ģì¡±": 4885,
      "ìĤ°íĻĶ": 4886,
      "ĠìľĦíķ´ìĦľëĬĶ": 4887,
      "Ġmusic": 4888,
      "Ġcorpor": 4889,
      "Ġìĭłë¢°": 4890,
      "ìĹĪìĸ´ìļĶ": 4891,
      "Ġë§ĲìĶ": 4892,
      "ê¹Ĳ": 4893,
      "ĠìŀĪì§Ģë§Į": 4894,
      "ìłģìĿ´": 4895,
      "ìĽĢìĿĦ": 4896,
      "Ġfine": 4897,
      "íĶĮë¦¬": 4898,
      "Ġeffic": 4899,
      "Ġrights": 4900,
      "Ġìĭľê°ĦìĿ´": 4901,
      "Ġspread": 4902,
      "Ġëħ¼ë¬¸ìĹĲìĦľëĬĶ": 4903,
      "ĠíĬ¹ìĦ±ìĿĦ": 4904,
      "Ġbat": 4905,
      "Ġadditional": 4906,
      "Ġproced": 4907,
      "ĠìľĦíķ´ìĦľ": 4908,
      "ìĦ¼íĦ°": 4909,
      "Ġrather": 4910,
      "Ġetc": 4911,
      "Ġgetting": 4912,
      "ĠëıĦìĽĢìĿ´": 4913,
      "Ġelement": 4914,
      "ë¨¸ëĭĪ": 4915,
      "ëª¨ëĵł": 4916,
      "Ġlegal": 4917,
      "ĠìłĦëŀµ": 4918,
      "Ġê°ĦìĿĺ": 4919,
      "Ġestablished": 4920,
      "ĠìĻ¸ë¶Ģ": 4921,
      "ĠLe": 4922,
      "ìłĿ": 4923,
      "Ġsales": 4924,
      "Ġdistribution": 4925,
      "Ġeat": 4926,
      "Ġnuc": 4927,
      "Ġprocessing": 4928,
      "Ġwords": 4929,
      "Ġeverything": 4930,
      "asm": 4931,
      "Ġpolice": 4932,
      "Ġê°Ļëĭ¤": 4933,
      "ĠArticle": 4934,
      "ÃĹ": 4935,
      "Ġaccept": 4936,
      "Ġíĳľì¤Ģ": 4937,
      "ë¦¬ì§Ģ": 4938,
      "ĠëįĶìļ±": 4939,
      "ë£Įë¥¼": 4940,
      "oms": 4941,
      "Ġcoun": 4942,
      "\":": 4943,
      "joy": 4944,
      "Ġgirl": 4945,
      "Ġëª¸": 4946,
      "Ġì§Ħëĭ¨": 4947,
      "Ġconcern": 4948,
      "ë¡¯": 4949,
      "ĠìłĦìĨ¡": 4950,
      "ĠAmeric": 4951,
      "Ġ--": 4952,
      "ìļ°ë¦¬ê°Ģ": 4953,
      "ĠìľłëıĦ": 4954,
      "anced": 4955,
      "MS": 4956,
      "san": 4957,
      "VID": 4958,
      "Ġ27": 4959,
      "Ġë°ĶìĿ´ëŁ¬ìĬ¤": 4960,
      "ĠìĿ¸ê°Ħ": 4961,
      "ìľ¼ë¡ľìĦľ": 4962,
      "Ġmatter": 4963,
      "Ġìĭłê²½": 4964,
      "Ġì¢ħë¥ĺ": 4965,
      "Ġsell": 4966,
      "Ġíļ¨ê³¼ë¥¼": 4967,
      "Ġë°ĶëŀįëĭĪëĭ¤": 4968,
      "reg": 4969,
      "ëĤĺëĿ¼": 4970,
      "ĠëŁ": 4971,
      "ĠíĻį": 4972,
      "ĠìķĮê³łë¦¬ì¦ĺ": 4973,
      "ĠTechn": 4974,
      "Ġêµ¬ì¶ķ": 4975,
      "Ġë¶ĦìĦĿìĿĦ": 4976,
      "Ġ70": 4977,
      "Ġdeb": 4978,
      "ĠíħĮìĬ¤íĬ¸": 4979,
      "ê°ľìĽĶ": 4980,
      "AC": 4981,
      "Ġimpact": 4982,
      "ë¡ľëĬĶ": 4983,
      "Ġox": 4984,
      "ëŁīìĿĢ": 4985,
      "ìĿ´ëŁ°": 4986,
      "ìļķ": 4987,
      "Ġprim": 4988,
      "Ġprofess": 4989,
      "ìĭľë©´": 4990,
      "ili": 4991,
      "une": 4992,
      "íķľëĭ¤ê³ł": 4993,
      "unch": 4994,
      "ëĭĿ": 4995,
      "Ġviol": 4996,
      "ĠëĲĺìĹĪëĭ¤": 4997,
      "Ġreve": 4998,
      "Ġsusp": 4999,
      "ĠíĮĶ": 5000,
      "Ġcommunity": 5001,
      "ìŀĲëĵ¤ìĿ´": 5002,
      "ìĿ´ì£ł": 5003,
      "Dept": 5004,
      "ê³¼íķĻ": 5005,
      "Ġneeded": 5006,
      "ĠíķĺëĤĺìĿĺ": 5007,
      "Ġìĸ´ëĬĲ": 5008,
      "urope": 5009,
      "Ġdeli": 5010,
      "Ġì°©": 5011,
      "Ġtrust": 5012,
      "oly": 5013,
      "ĠìĥĿíĻľ": 5014,
      "ĠMr": 5015,
      "ì§ĢëĤľ": 5016,
      "Ġgas": 5017,
      "Ġíı´": 5018,
      "Ġnothing": 5019,
      "Ġìĸ¸ìłľ": 5020,
      "ĠëıĻìĿ¼íķľ": 5021,
      "Ġcra": 5022,
      "ë§Īëĭ¤": 5023,
      "ĠìŀĪëĬĶëį°": 5024,
      "Ġê²½ì°°": 5025,
      "den": 5026,
      "aur": 5027,
      "Ġminutes": 5028,
      "ì§Ħëĭ¤": 5029,
      "ĠìŀĲìĭłìĿĺ": 5030,
      "Ġreflect": 5031,
      "ricult": 5032,
      "ìĸ¼": 5033,
      "angu": 5034,
      "Ġë¶ģíķľ": 5035,
      "Ġexch": 5036,
      "ìĿ¸ìĿĢ": 5037,
      "Ġê¸´": 5038,
      "Ġmeasures": 5039,
      "Ġleave": 5040,
      "Ġago": 5041,
      "ìĬ¤íĶĮëłĪìĿ´": 5042,
      "ĠìĪĺê°Ģ": 5043,
      "ĠìĿ¸íķľ": 5044,
      "yeon": 5045,
      "ìłĲìĿ´": 5046,
      "Ġseems": 5047,
      "Ġattention": 5048,
      "Ġmax": 5049,
      "Ġpan": 5050,
      "ĠThis": 5051,
      "Ġmother": 5052,
      "ë¬¸íĻĶ": 5053,
      "ëĶĶìĺ¤": 5054,
      "ĠíĹ¤": 5055,
      "ello": 5056,
      "Ġìŀĳìļ©": 5057,
      "Ġê¸°ê´Ģ": 5058,
      "Ġcolor": 5059,
      "ë³ĳìĽĲ": 5060,
      "Ġutil": 5061,
      "ĠChar": 5062,
      "¥Ĳ": 5063,
      "itary": 5064,
      "ports": 5065,
      "Ġsupply": 5066,
      "Ġincludes": 5067,
      "ĠìĿ´ëłĩê²Į": 5068,
      "lor": 5069,
      "Ġconstruction": 5070,
      "ĠìŀĪëĬĶì§Ģ": 5071,
      "ledge": 5072,
      "LL": 5073,
      "rest": 5074,
      "Ġë£": 5075,
      "ĠìĹĨìĸ´ìļĶ": 5076,
      "Ġautom": 5077,
      "Ġpersonal": 5078,
      "ĠMinistry": 5079,
      "Ġsensor": 5080,
      "Ġwrong": 5081,
      "leg": 5082,
      "Ġbasic": 5083,
      "Ġstrains": 5084,
      "ìĬ¤íĦ°": 5085,
      "Ġì½ĺíħĲì¸ł": 5086,
      "ëľ": 5087,
      "Ġphone": 5088,
      "ĠìĤ¬ë§Ŀ": 5089,
      "Ġusers": 5090,
      "ext": 5091,
      "Ġlink": 5092,
      "ìĭľì¼ľ": 5093,
      "Ġgiven": 5094,
      "olit": 5095,
      "Ġì£¼ìŀ¥": 5096,
      "ĠìĿ½": 5097,
      "Ġtaking": 5098,
      "ì²ĺë¦¬": 5099,
      "Ġdeg": 5100,
      "ëĭ¤ìĿĮ": 5101,
      "ì°¸": 5102,
      "ĠìĹĲëĦĪì§Ģ": 5103,
      "come": 5104,
      "dong": 5105,
      "ĳ¸": 5106,
      "Ġprotect": 5107,
      "ìłķíķľ": 5108,
      "Ġplant": 5109,
      "igure": 5110,
      "oman": 5111,
      "%)": 5112,
      "ĠìĽĶ": 5113,
      "ë§ĪìĽĮ": 5114,
      "Ġactive": 5115,
      "Ġ`": 5116,
      "verse": 5117,
      "Ġstarted": 5118,
      "Ġdamage": 5119,
      "ots": 5120,
      "ĠService": 5121,
      "astic": 5122,
      "Ġë°ľíĺĦ": 5123,
      "hest": 5124,
      "Ġëħ¼ìĿĺ": 5125,
      "ĠResearch": 5126,
      "ĠAD": 5127,
      "Ġê·ľëª¨": 5128,
      "05": 5129,
      "Ġmemory": 5130,
      "Ġbehavior": 5131,
      "ľĺ": 5132,
      "Ġìłģíķ©": 5133,
      "arc": 5134,
      "ìĸ´ìķ¼": 5135,
      "Ġdrink": 5136,
      "EN": 5137,
      "Ġê°Ŀ": 5138,
      "Where": 5139,
      "Ġaff": 5140,
      "Ġbreak": 5141,
      "íĸĪìĿĦ": 5142,
      "BBB": 5143,
      "ĠApp": 5144,
      "Ġê³µìĹ°": 5145,
      "ìłĦìŀĲ": 5146,
      "Ġmaterials": 5147,
      "Ġhost": 5148,
      "ĠìĽĢ": 5149,
      "Am": 5150,
      "Even": 5151,
      "ĠìŀĳìĦ±": 5152,
      "Com": 5153,
      "ĠEngineering": 5154,
      "ĠìķĬìĬµëĭĪëĭ¤": 5155,
      "Ġlabor": 5156,
      "ĠSp": 5157,
      "ĠÎ": 5158,
      "',": 5159,
      "ìī": 5160,
      "AP": 5161,
      "ĠElect": 5162,
      "ĠëĲ©ëĭĪëĭ¤": 5163,
      "Lee": 5164,
      "ĠChinese": 5165,
      "ĠíĴĪì§Ī": 5166,
      "ìĤ¬ìĹĲ": 5167,
      "ìłľìĿĺ": 5168,
      "Ġê·¸ê°Ģ": 5169,
      "Ġoften": 5170,
      "ë³ĢìĿ´": 5171,
      "ĠëĪĦêµ¬": 5172,
      "ĠìłģìłĪ": 5173,
      "Ġnegative": 5174,
      "oye": 5175,
      "ĠìķĦëŀĺ": 5176,
      "Did": 5177,
      "Ġdate": 5178,
      "Ġdecision": 5179,
      "Ġê°ķíĻĶ": 5180,
      "Ġmakes": 5181,
      "ĠCity": 5182,
      "ìłķë§Ĳ": 5183,
      "Ġbillion": 5184,
      "Ġfarm": 5185,
      "Ġìľ¡": 5186,
      "ging": 5187,
      "ĠPart": 5188,
      "Ġì¶ľëł¥": 5189,
      "ĠìĽ¹": 5190,
      "Ġë§ĪìĿĮ": 5191,
      "ĠFr": 5192,
      "Ġë¬¼ì§Ī": 5193,
      "Ġì¶Ķì§Ħ": 5194,
      "Ġê²¬": 5195,
      "Ġmeasured": 5196,
      "íķ´ì£¼": 5197,
      "Ġexpect": 5198,
      "ength": 5199,
      "ĠìķĦëĭĪìķ¼": 5200,
      "Ġbur": 5201,
      "Ġfacilities": 5202,
      "íĴį": 5203,
      "Ġcoll": 5204,
      "ouble": 5205,
      "Ġê²©": 5206,
      "Ġë§ĮëĤĺ": 5207,
      "ìĻĶëĭ¤": 5208,
      "ĠBe": 5209,
      "Ġansw": 5210,
      "ĠíĻ©": 5211,
      "ë¡¤": 5212,
      "orrow": 5213,
      "gest": 5214,
      "Ġyoung": 5215,
      "Ġinfection": 5216,
      "Ġì§Īë¬¸": 5217,
      "ah": 5218,
      "ĠAnalysis": 5219,
      "ustr": 5220,
      "ype": 5221,
      "Ġmach": 5222,
      "ĠìłľìĻ¸": 5223,
      "Ġannounced": 5224,
      "ropri": 5225,
      "Ġidea": 5226,
      "Ġlocation": 5227,
      "Ġëª¨ìĬµ": 5228,
      "ëįķ": 5229,
      "ĠMe": 5230,
      "ĠíĨµíķĺìĹ¬": 5231,
      "Ġquant": 5232,
      "íĶĮë¦¬ì¼ĢìĿ´ìħĺ": 5233,
      "Ġê²ĮìŀĦ": 5234,
      "ĠYOU": 5235,
      "ĠSo": 5236,
      "ëł¸ëĭ¤": 5237,
      "omet": 5238,
      "Ġìĭ«": 5239,
      "Ġvideo": 5240,
      "tr": 5241,
      "ĠScience": 5242,
      "Ġìĭľê°ĦìĿĦ": 5243,
      "ector": 5244,
      "aps": 5245,
      "ë¹Ī": 5246,
      "Ġfriends": 5247,
      "ìŀł": 5248,
      "Ġê²Ģì¦Ŀ": 5249,
      "Me": 5250,
      "ìĤ¬ëŀĮ": 5251,
      "íĬ¼": 5252,
      "ĠíķĺìĹ¬": 5253,
      "Ġexpression": 5254,
      "Ġdiagn": 5255,
      "Ġëĥī": 5256,
      "Ġenjoy": 5257,
      "ĠìĪĺìĹħ": 5258,
      "Ġlate": 5259,
      "23": 5260,
      "ĠChe": 5261,
      "Ġren": 5262,
      "ĠPresident": 5263,
      "ternal": 5264,
      "Ġalgorithm": 5265,
      "ĠíĶĦë¡ľìĦ¸": 5266,
      "ĠìĬ¬": 5267,
      "ĠDong": 5268,
      "iet": 5269,
      "ĠEurope": 5270,
      "Ġhold": 5271,
      "ĠìĿĮìĭĿ": 5272,
      "ìĤ°ìĹħ": 5273,
      "Ġreduced": 5274,
      "Ġla": 5275,
      "Ġeff": 5276,
      "ĠìĦ¼ìĦľ": 5277,
      "Ġcharge": 5278,
      "ises": 5279,
      "ĠìŀĪê²Į": 5280,
      "íļ¨ê³¼": 5281,
      "illage": 5282,
      "ĠAss": 5283,
      "ĠìĹħë¬´": 5284,
      "Ġnormal": 5285,
      "ĠHealth": 5286,
      "Ġcred": 5287,
      "ë§¥": 5288,
      "Ġë§Ŀ": 5289,
      "ëŁīìĿĺ": 5290,
      "Ġred": 5291,
      "Ġmg": 5292,
      "Ġwatch": 5293,
      "ĠìĿ´ê²ĥ": 5294,
      "Ġparents": 5295,
      "most": 5296,
      "Your": 5297,
      "íĸĪê³ł": 5298,
      "ĠìĤ¬ìĿ´ìĿĺ": 5299,
      "Ġíĺ¹": 5300,
      "aled": 5301,
      "tual": 5302,
      "ĠìĪĺìļ©": 5303,
      "Ġìŀĺëª»": 5304,
      "Ġguy": 5305,
      "ìŀĺ": 5306,
      "ìŀĲìĻĢ": 5307,
      "ĠTV": 5308,
      "Ġdrug": 5309,
      "ik": 5310,
      "ories": 5311,
      "Ġë°°ì¹ĺ": 5312,
      "char": 5313,
      "Not": 5314,
      "ê°Ģê°Ģ": 5315,
      "Ġcontrib": 5316,
      "ê³¤": 5317,
      "Ġmechan": 5318,
      "aff": 5319,
      "24": 5320,
      "Ġë¨¼ìłĢ": 5321,
      "Ġliving": 5322,
      "Ġclin": 5323,
      "Ġê°Ģìłķ": 5324,
      "Ġcomputer": 5325,
      "Res": 5326,
      "íĭ´": 5327,
      "ĠìķĬëĭ¤": 5328,
      "AD": 5329,
      "Ġì£¼ë³Ģ": 5330,
      "oph": 5331,
      "Ġê°ķì¡°": 5332,
      "ê´´": 5333,
      "amer": 5334,
      "ike": 5335,
      "Ġê²½ìļ°ìĹĲëĬĶ": 5336,
      "Ġê·¸ê²ĥìĿĦ": 5337,
      "ìĬ¤ë¡ľ": 5338,
      "Ġë§ĲìĶĢ": 5339,
      "Ġ300": 5340,
      "Ġquick": 5341,
      "êµ¬ì¡°": 5342,
      "Ġìĭ¤ìłľ": 5343,
      "Who": 5344,
      "ë¬¼ìĿĢ": 5345,
      "ĠëĮĢì²´": 5346,
      "Ġpredict": 5347,
      "ìķĪëħķíķĺìĦ¸ìļĶ": 5348,
      "Ġheart": 5349,
      "Ġproperty": 5350,
      "ĠìĽĢì§ģ": 5351,
      "May": 5352,
      "ires": 5353,
      "íĺģ": 5354,
      "ĠìķĦëĭĪëĭ¤": 5355,
      "ush": 5356,
      "Ġprovides": 5357,
      "Ġhear": 5358,
      "Ġability": 5359,
      "Ġdirectly": 5360,
      "Here": 5361,
      "Ġíķĺë©´": 5362,
      "Ġfile": 5363,
      "Ġcop": 5364,
      "Ġhydro": 5365,
      "íĺķìĿĦ": 5366,
      "Ġsomeone": 5367,
      "Ġsurvey": 5368,
      "ì©": 5369,
      "ì§ĢíĦ¸": 5370,
      "ìĤ°ìĿĦ": 5371,
      "Ġwalk": 5372,
      "êµ¬ë¥¼": 5373,
      "Ġ##": 5374,
      "Ġroad": 5375,
      "Ġconsist": 5376,
      "Ġpotential": 5377,
      "Ġdecreased": 5378,
      "ĠìĤ¬íļĮìłģ": 5379,
      "ĠMet": 5380,
      "ĠMod": 5381,
      "ĠDef": 5382,
      "ĠíĶĮëĿ¼": 5383,
      "ĠGovern": 5384,
      "Ġë°ĺìĺģ": 5385,
      "íĭĢ": 5386,
      "Ġremov": 5387,
      "ĠëĤĺìĺ¤": 5388,
      "Ġëĭ¤ìĿĮê³¼": 5389,
      "ĠëŃĶ": 5390,
      "cast": 5391,
      "ê±°ëĵłìļĶ": 5392,
      "Ġfinal": 5393,
      "ë§İ": 5394,
      "ĠìĹ°êµ¬ìĹĲìĦľ": 5395,
      "Ġë¶Ħíı¬": 5396,
      "Ad": 5397,
      "ĠìĿĺìĤ¬": 5398,
      "ĠìĦ¬": 5399,
      "ĠìĿ´ìłĦ": 5400,
      "Ġdecided": 5401,
      "Ġê³µìľł": 5402,
      "Ġì§ĳì¤ĳ": 5403,
      "ë¦¬ìłģ": 5404,
      "Ġìĩ": 5405,
      "Ġê°ĸëĬĶ": 5406,
      "Ġclean": 5407,
      "omes": 5408,
      "ë§ŀ": 5409,
      "Ġíĺ¼íķ©": 5410,
      "Ġoil": 5411,
      "Ġseason": 5412,
      "ìĹĨìĿ´": 5413,
      "Ġeconomy": 5414,
      "ott": 5415,
      "ìłľëĬĶ": 5416,
      "Ġê³µê²©": 5417,
      "Ġmorning": 5418,
      "ĠMay": 5419,
      "af": 5420,
      "Ġbank": 5421,
      "ief": 5422,
      "ĠOh": 5423,
      "Ġpoints": 5424,
      "Ġheard": 5425,
      "Ġreduce": 5426,
      "Ġì§ĳëĭ¨": 5427,
      "RE": 5428,
      "ĠíĿĲ": 5429,
      "ats": 5430,
      "Ġë³´ìĹ¬ì£¼": 5431,
      "ĠSec": 5432,
      "itude": 5433,
      "íĽ": 5434,
      "avor": 5435,
      "ëŀ¬": 5436,
      "oyment": 5437,
      "Ġemploye": 5438,
      "ìĦłìĿĦ": 5439,
      "aint": 5440,
      "Ġ29": 5441,
      "Ġê·¸ê²Į": 5442,
      "Ġcoming": 5443,
      "Ġconsider": 5444,
      "ìĿ´ìĻĢ": 5445,
      "ĠìĹ°êµ¬ìĿĺ": 5446,
      "ĠJe": 5447,
      "Ġtable": 5448,
      "Ġterminal": 5449,
      "Ġëª¨ëĵĪ": 5450,
      "ëĤĺë¬´": 5451,
      "ĠëĮĢì¡°": 5452,
      "semb": 5453,
      "Ġëħ¹": 5454,
      "duc": 5455,
      "ler": 5456,
      "ĠìĬ¤ë§ĪíĬ¸": 5457,
      "ìŀĲìĹĲ": 5458,
      "sy": 5459,
      "Ġhous": 5460,
      "ëĭ¤ê°Ģ": 5461,
      "Ġelse": 5462,
      "Ġì´Īê¸°": 5463,
      "Ġrecently": 5464,
      "Ġìĸ´ë¦°": 5465,
      "ĠCOVID": 5466,
      "íķĻìĥĿ": 5467,
      "Ġground": 5468,
      "ĠìĤ¬ìĿ´ìĹĲ": 5469,
      "Ġë°ĽìĿĢ": 5470,
      "ĠíĻķë³´": 5471,
      "ĠíĽĦìĹĲ": 5472,
      "Ġsolution": 5473,
      "íĿ¡": 5474,
      "ivil": 5475,
      "wh": 5476,
      "Ġìĸ´ëłµ": 5477,
      "ìłł": 5478,
      "Ľ°": 5479,
      "ensity": 5480,
      "Ġsle": 5481,
      "Ġíı¬íķ¨íķĺëĬĶ": 5482,
      "Ġguys": 5483,
      "Ġhit": 5484,
      "ëĤ¼": 5485,
      "ĠëĦĲ": 5486,
      "ìĸ´ë¥¼": 5487,
      "ëĲĺë©´": 5488,
      "Ġcorre": 5489,
      "ĠëĤĺíĥĢëĤ¸": 5490,
      "Ġë³´ë©´": 5491,
      "íĬ¸ìĿĺ": 5492,
      "ĠìĭľìĦ¤": 5493,
      "amm": 5494,
      "body": 5495,
      "ìĽĥ": 5496,
      "Ġë³´íĹĺ": 5497,
      "By": 5498,
      "Ġgene": 5499,
      "fect": 5500,
      "Ġê²ĥìĿ´ëĿ¼ê³ł": 5501,
      "ray": 5502,
      "Ġlikely": 5503,
      "Ġbroad": 5504,
      "íĶ½": 5505,
      "uh": 5506,
      "ëł¬": 5507,
      "Ġmass": 5508,
      "ining": 5509,
      "Ġwide": 5510,
      "igation": 5511,
      "Ġtalking": 5512,
      "Ġtom": 5513,
      "Ġìłķìĭł": 5514,
      "Ġhighest": 5515,
      "pec": 5516,
      "lish": 5517,
      "Ġsex": 5518,
      "Ġ90": 5519,
      "Ġcourt": 5520,
      "Ġcorresponding": 5521,
      "ìĺ¥": 5522,
      "Ġalone": 5523,
      "ë¶ĢëĬĶ": 5524,
      "ĠìłĪì°¨": 5525,
      "wan": 5526,
      "rast": 5527,
      "Ġmiddle": 5528,
      "ì²´ëĬĶ": 5529,
      "we": 5530,
      "ĠêµŃë¯¼": 5531,
      "Ġisn": 5532,
      "ĠíĴĢ": 5533,
      "uit": 5534,
      "Ġíļį": 5535,
      "Ġcorrel": 5536,
      "Ġpret": 5537,
      "orld": 5538,
      "ibr": 5539,
      "Ġaccur": 5540,
      "ercial": 5541,
      "Ġmeaning": 5542,
      "Ġë°ľëªħìĿĺ": 5543,
      "Ġtransport": 5544,
      "ĠìĿ¸ì¦Ŀ": 5545,
      "ĠíĨµê³Ħ": 5546,
      "ìłķìĿ´": 5547,
      "ëªĩ": 5548,
      "ING": 5549,
      "Ġorganiz": 5550,
      "Ġlimit": 5551,
      "ift": 5552,
      "ìŀĳìļ©": 5553,
      "ï¬ģ": 5554,
      "Ġìľłê¸°": 5555,
      "Ġcustomers": 5556,
      "ĠëĶĶìĬ¤íĶĮëłĪìĿ´": 5557,
      "Ġrapid": 5558,
      "ĠProvince": 5559,
      "ĠìłľíĴĪìĿĦ": 5560,
      "Ġadjust": 5561,
      "Ġitems": 5562,
      "Ġphysical": 5563,
      "itch": 5564,
      "Ġinhib": 5565,
      "ëĳĺ": 5566,
      "Ġsuit": 5567,
      "Hello": 5568,
      "Ġê¸°ëĬ¥ìĿĦ": 5569,
      "Ġstress": 5570,
      "pecially": 5571,
      "ĠUsing": 5572,
      "ìĤ¼": 5573,
      "Ġinn": 5574,
      "ëĭ¹ìĭłìĿ´": 5575,
      "íĺ¹": 5576,
      "ĠBl": 5577,
      "Ġinside": 5578,
      "Ġsaw": 5579,
      "Ġoutside": 5580,
      "Ġëĭµ": 5581,
      "ball": 5582,
      "icon": 5583,
      "Ġë°Ķê": 5584,
      "Ġbring": 5585,
      "Ġentire": 5586,
      "Ġê°ľìĿĺ": 5587,
      "Ġcultural": 5588,
      "Ġparam": 5589,
      "Ġê°ĸê³ł": 5590,
      "Ġinterp": 5591,
      "ĠGyeonggi": 5592,
      "Ġconcentr": 5593,
      "Of": 5594,
      "Ġdevices": 5595,
      "íķĺëĭ¤ê³ł": 5596,
      "ĠìĿĮìķħ": 5597,
      "mitted": 5598,
      "ĠìĤ¬ìļ©íķĺëĬĶ": 5599,
      "ëĲĺìĹĪìľ¼ë©°": 5600,
      "work": 5601,
      "ëĵľë¦¬": 5602,
      "ìĨĮìĿĺ": 5603,
      "uff": 5604,
      "like": 5605,
      "ê¸°ê°Ħ": 5606,
      "Ġìī½ê²Į": 5607,
      "ĠGod": 5608,
      "ìłķìĹĲ": 5609,
      "ìłľíĴĪ": 5610,
      "head": 5611,
      "ëĲĺìĸ´ìķ¼": 5612,
      "Ġë©Ģ": 5613,
      "Ġconver": 5614,
      "oe": 5615,
      "rm": 5616,
      "ĠìĦľë¹ĦìĬ¤ë¥¼": 5617,
      "Ġì£¼ë¡ľ": 5618,
      "Ġmultiple": 5619,
      "Ġfather": 5620,
      "ê°ľë°ľ": 5621,
      "ĠìłĦíĻĺ": 5622,
      "íķĺëł¤ê³ł": 5623,
      "ley": 5624,
      "Ġë©Ķìĭľ": 5625,
      "ĠìĿ¸íĦ°ëĦ·": 5626,
      "Ġë¹¨ë¦¬": 5627,
      "íĿ¥": 5628,
      "Ġprec": 5629,
      "Ġcapital": 5630,
      "ëĭ¥": 5631,
      "ì§Ģì§Ģ": 5632,
      "year": 5633,
      "ìĭľìĦ¤": 5634,
      "Ġìŀ¥ìķł": 5635,
      "Ġë°ķíħĮë¦¬ìķĦ": 5636,
      "ends": 5637,
      "ì´Į": 5638,
      "Ġsample": 5639,
      "ìľ¤": 5640,
      "ĠìĿ´ë¯¸ì§Ģ": 5641,
      "Ġspeed": 5642,
      "ê¶ĮìĿĦ": 5643,
      "Ġaction": 5644,
      "Ġ120": 5645,
      "Ġê¹Ĭ": 5646,
      "Ġhappened": 5647,
      "ëĮĢíķľ": 5648,
      "ê·¸ê²Į": 5649,
      "Ġdispos": 5650,
      "Ġeffort": 5651,
      "Ġvirus": 5652,
      "ception": 5653,
      "ê·¸ê±´": 5654,
      "ĠìĹ¬ìłĦíŀĪ": 5655,
      "Ġsafe": 5656,
      "Ġworks": 5657,
      "Ġê²½íĸ¥": 5658,
      "Ġasked": 5659,
      "Ġê¿": 5660,
      "mber": 5661,
      "BS": 5662,
      "ĠìĺĪë°©": 5663,
      "ges": 5664,
      "ĠìĹŃìĭľ": 5665,
      "Ġsn": 5666,
      "anguage": 5667,
      "Ġ500": 5668,
      "ëł´": 5669,
      "Ġpric": 5670,
      "Ġserious": 5671,
      "Ġresistance": 5672,
      "Ġtaken": 5673,
      "ìĶ¬": 5674,
      "ëį°ìĿ´íĦ°": 5675,
      "íķĺìĿĺ": 5676,
      "ìĿ´ê¸°": 5677,
      "fl": 5678,
      "Ġsche": 5679,
      "ìľ¼ë¡ľëĬĶ": 5680,
      "ĠìĦłìĪĺ": 5681,
      "go": 5682,
      "Ġsound": 5683,
      "Ġrefer": 5684,
      "Ġì±ħìŀĦ": 5685,
      "aching": 5686,
      "ë°ĶìĿ´ìĬ¤": 5687,
      "ê°ĲìĿĦ": 5688,
      "Ġtrade": 5689,
      "ĺĳ": 5690,
      "ĠìĥģìĬ¹": 5691,
      "Ġbeaut": 5692,
      "Come": 5693,
      "ĠìĤ¬ëŀĮëĵ¤ìĿĢ": 5694,
      "ãİ": 5695,
      "Ġmatch": 5696,
      "Ġantib": 5697,
      "Ġëľ»": 5698,
      "Ġindex": 5699,
      "Ġë¶Ģëĭ´": 5700,
      "Ġtrue": 5701,
      "ì²´ìĹĲ": 5702,
      "Ġpolitical": 5703,
      "ë¦¿": 5704,
      "Ġvehicle": 5705,
      "ì§ĵ": 5706,
      "íı¼": 5707,
      "ê°ĳ": 5708,
      "íĭ±": 5709,
      "Ġëĵ±ìĹĲ": 5710,
      "cm": 5711,
      "Ġonline": 5712,
      "Ġworkers": 5713,
      "Ġê±±ìłķ": 5714,
      "Ġíį¼": 5715,
      "pa": 5716,
      "Ġquestions": 5717,
      "Ġlost": 5718,
      "Ġcho": 5719,
      "vent": 5720,
      "Kore": 5721,
      "Ġload": 5722,
      "Ġbab": 5723,
      "iveness": 5724,
      "Ġproperties": 5725,
      "Ġlimited": 5726,
      "Ġë³´ìķĪ": 5727,
      "ìŀĲë¡ľ": 5728,
      "ĠìŀĪëĤĺìļĶ": 5729,
      "atform": 5730,
      "ows": 5731,
      "Ġdead": 5732,
      "ĠìĹ¬ìĦ±": 5733,
      "Ġìĭ¸": 5734,
      "ipment": 5735,
      "Ġë§ĲìĿĦ": 5736,
      "ìłķìĿĺ": 5737,
      "ulate": 5738,
      "empt": 5739,
      "Ġassess": 5740,
      "ë§İìĿĢ": 5741,
      "ìħĶìĦľ": 5742,
      "ully": 5743,
      "ëĥĪ": 5744,
      "ĠìŀĪê¸°": 5745,
      "ĠíĸīìľĦ": 5746,
      "zym": 5747,
      "Ġpayment": 5748,
      "Ġsoil": 5749,
      "bo": 5750,
      "rim": 5751,
      "ills": 5752,
      "Ġess": 5753,
      "Ġsociety": 5754,
      "ĠJapanese": 5755,
      "Ġextra": 5756,
      "íĦ°ë§ģ": 5757,
      "Ġë¶Ħëªħ": 5758,
      "Ġter": 5759,
      "version": 5760,
      "Ġsetting": 5761,
      "amic": 5762,
      "Ġìĭ¶ìĸ´": 5763,
      "ĠìĿĺê²¬": 5764,
      "Ġgreen": 5765,
      "Ġë³ĢíĻĶë¥¼": 5766,
      "íĻĶìĹĲ": 5767,
      "iot": 5768,
      "Ġcreated": 5769,
      "ëĵľë¦½ëĭĪëĭ¤": 5770,
      "Ġì¢Į": 5771,
      "Ġeither": 5772,
      "ĠìłĦíĨµ": 5773,
      "airs": 5774,
      "Ġêµ¬ë¶Ħ": 5775,
      "ĠìŀĦìĥģ": 5776,
      "Ġcit": 5777,
      "ê¸°ìĻĢ": 5778,
      "DA": 5779,
      "Ġinvestigation": 5780,
      "ĠCollege": 5781,
      "Ġprepared": 5782,
      "ìĦľìļ¸": 5783,
      "ê²łì§Ģ": 5784,
      "Ġë§Ĳíķ´": 5785,
      "ë¯¸êµŃ": 5786,
      "Ġknowledge": 5787,
      "Ġmodule": 5788,
      "ĠìĬ¤íĥĢ": 5789,
      "lex": 5790,
      "Ġë°ĶëŀĮ": 5791,
      "ë°©ë²ķ": 5792,
      "First": 5793,
      "Ġsem": 5794,
      "Ġëª°ëĿ¼": 5795,
      "atab": 5796,
      "ĠDo": 5797,
      "Ġstock": 5798,
      "Ġpopular": 5799,
      "Ġdest": 5800,
      "ë²¨": 5801,
      "ìĭľíĤ¨": 5802,
      "Ġenh": 5803,
      "Ġcancer": 5804,
      "osure": 5805,
      "ëĵ¤ëıĦ": 5806,
      "Ġcapac": 5807,
      "Ġtren": 5808,
      "ìľĦìĽĲíļĮ": 5809,
      "íĨµìĭł": 5810,
      "Ġcollected": 5811,
      "Ġ*": 5812,
      "ìĥĿë¬¼": 5813,
      "ëĥĪëĭ¤": 5814,
      "Ġtool": 5815,
      "Ġissues": 5816,
      "ìłĦìĿĦ": 5817,
      "ĠìĹ°ê´Ģ": 5818,
      "ĠìĪĺìĪł": 5819,
      "Ġthinking": 5820,
      "Ġexternal": 5821,
      "Ġskin": 5822,
      "NS": 5823,
      "íķĺìĹ¬ìķ¼": 5824,
      "Ġfrequency": 5825,
      "ìŀĲê¸°": 5826,
      "Ġwasn": 5827,
      "Ġopportun": 5828,
      "Ġfeed": 5829,
      "Ġpresident": 5830,
      "Ġëĵ£": 5831,
      "ester": 5832,
      "ĠëĽ°": 5833,
      "Ġcompar": 5834,
      "wa": 5835,
      "Ġdifferences": 5836,
      "Ġindu": 5837,
      "Ġê²½ë¡ľ": 5838,
      "Ġì§ĢëĤĺ": 5839,
      "ĠComp": 5840,
      "Ġplural": 5841,
      "Ġfish": 5842,
      "Ġproduced": 5843,
      "ĠìĻĦìłĦíŀĪ": 5844,
      "ë¬´ìĬ¨": 5845,
      "Ġëħ¸ëıĻ": 5846,
      "ì¼ľ": 5847,
      "Ġíķ´ìĻ¸": 5848,
      "aged": 5849,
      "Ġappropri": 5850,
      "Ġ>": 5851,
      "Ġë§¤ê°ľ": 5852,
      "ĩĮ": 5853,
      "Ġefficiency": 5854,
      "Ġprior": 5855,
      "ram": 5856,
      "Ġwait": 5857,
      "Ġbegin": 5858,
      "Ġíĩ´": 5859,
      "Ġresources": 5860,
      "Ġcarried": 5861,
      "aced": 5862,
      "Ġë¯¸ëŀĺ": 5863,
      "Ġbelow": 5864,
      "Ġfat": 5865,
      "ĠGe": 5866,
      "Ġjo": 5867,
      "ëĭĲ": 5868,
      "Ġexhib": 5869,
      "vant": 5870,
      "įìłķ": 5871,
      "Ġconnected": 5872,
      "Ġpict": 5873,
      "ë³Ħë¡ľ": 5874,
      "Ġrecent": 5875,
      "Ġcomes": 5876,
      "Ġê²ĥìĹĲ": 5877,
      "ĠëıĻìĭľìĹĲ": 5878,
      "Ġëħ¸ì¶ľ": 5879,
      "ĠëĤĺíĥĢëĤĺ": 5880,
      "ĠìĭľìĤ¬": 5881,
      "iber": 5882,
      "cription": 5883,
      "Ġíķĺë£¨": 5884,
      "ĠëĤĺëĿ¼": 5885,
      "ìĸ´ëĤĺ": 5886,
      "ĠTHE": 5887,
      "Ġê¹¨": 5888,
      "Ġaddress": 5889,
      "90": 5890,
      "íĭ¸": 5891,
      "OK": 5892,
      "Ġregarding": 5893,
      "Good": 5894,
      "Ġindepend": 5895,
      "ĠHan": 5896,
      "term": 5897,
      "amin": 5898,
      "reme": 5899,
      "Ġder": 5900,
      "ocal": 5901,
      "ë¶Ģë¥¼": 5902,
      "ĠìĤ¬ë¬´": 5903,
      "Ġë©´ìĹŃ": 5904,
      "Ġothers": 5905,
      "ìĹ°ë³ĢìĿ´": 5906,
      "airm": 5907,
      "Ġopin": 5908,
      "ìĿĢíĸī": 5909,
      "ë©ĶëĿ¼": 5910,
      "Ġcool": 5911,
      "ĠìķĦë¹ł": 5912,
      "ĠìĥĿê°ģíķ´": 5913,
      "ĠìĦĿ": 5914,
      "umn": 5915,
      "ĠâĻª": 5916,
      "ĠìĹĨìĹĪ": 5917,
      "Ġdetect": 5918,
      "ĠAP": 5919,
      "Ġenvironmental": 5920,
      "Ġê°ĻìķĦìļĶ": 5921,
      "Ġpresented": 5922,
      "Ġidentified": 5923,
      "Ġê²°íĺ¼": 5924,
      "ëĭ¬ëŁ¬": 5925,
      "ensive": 5926,
      "Ġê¸°ê³Ħ": 5927,
      "ìĤ¬ìĻĢ": 5928,
      "ĠëĩĮ": 5929,
      "Ġ=": 5930,
      "Ġì¡°ê¸Ī": 5931,
      "¨ìĶ¬": 5932,
      "ìĭĿìĿ´": 5933,
      "Ġsense": 5934,
      "ĠìĿ´ìķ¼ê¸°": 5935,
      "íĹĮ": 5936,
      "Ġìļ°ìĪĺ": 5937,
      "ches": 5938,
      "ë¶ĦìĿĺ": 5939,
      "Ġëŀ": 5940,
      "ìĥĿëĭĺ": 5941,
      "ening": 5942,
      "Ġagreement": 5943,
      "ìĿ¼ìĿ´": 5944,
      "Ġë©Ķëª¨": 5945,
      "ands": 5946,
      "ìĽĲìĹĲ": 5947,
      "Ġê´Ģê³Ħë¥¼": 5948,
      "Ġê·¼ê±°": 5949,
      "Ġattack": 5950,
      "ĠëłĪìĿ´": 5951,
      "ores": 5952,
      "Ġchem": 5953,
      "Ġstory": 5954,
      "íĶĦíĬ¸ìĽ¨ìĸ´": 5955,
      "Ġvict": 5956,
      "Ġdriving": 5957,
      "ead": 5958,
      "ĠìķĦë²Ħ": 5959,
      "ë¥´ëĬĶ": 5960,
      "Ġtw": 5961,
      "êµ¬ìĿĺ": 5962,
      "ĠìĭľìĬ¤íħľìĿĦ": 5963,
      "Ġinfluence": 5964,
      "Ġrelatively": 5965,
      "Ġbud": 5966,
      "Ġinitial": 5967,
      "ëį°ìļĶ": 5968,
      "Ġlack": 5969,
      "izes": 5970,
      "íĤ¹": 5971,
      "Ġsil": 5972,
      "Ġpen": 5973,
      "Ġphen": 5974,
      "ìĬ¤ëŁ¬": 5975,
      "ĠìĦłìłķ": 5976,
      "ĠëĤ¨ìŀĲ": 5977,
      "ĠëĲĺê³ł": 5978,
      "Ġpopulation": 5979,
      "Ġë°Ľê³ł": 5980,
      "ìĤ¬ìĭ¤": 5981,
      "Ġìłģê·¹": 5982,
      "Ġplurality": 5983,
      "Ġë³µíķ©": 5984,
      "ĠëĶĶë°ĶìĿ´ìĬ¤": 5985,
      "ĠíĿĶ": 5986,
      "Ġprog": 5987,
      "ĠìľĦìĽĲ": 5988,
      "ì¤Ģëĭ¤": 5989,
      "ëĮĢìĿĺ": 5990,
      "Ġtoward": 5991,
      "ĠìĽĲíķĺëĬĶ": 5992,
      "ëĮĢìĹĲ": 5993,
      "ously": 5994,
      "ìķĺìĸ´ìļĶ": 5995,
      "Ġbir": 5996,
      "Ġdemon": 5997,
      "airman": 5998,
      "my": 5999,
      "Ġbecame": 6000,
      "Ġexact": 6001,
      "ĠíĻķìŀ¥": 6002,
      "atus": 6003,
      "ĠEduc": 6004,
      "Ġê¶ģ": 6005,
      "ĠFin": 6006,
      "ëĨĵ": 6007,
      "ari": 6008,
      "Ġë£¨": 6009,
      "Ġjoint": 6010,
      "ĠFe": 6011,
      "ê·¸ê°Ģ": 6012,
      "Ġë¹Į": 6013,
      "Ġmilitary": 6014,
      "Ġpark": 6015,
      "ĠìŀĳíĴĪ": 6016,
      "Ġrates": 6017,
      "rapy": 6018,
      "Be": 6019,
      "iver": 6020,
      "Ġweeks": 6021,
      "ser": 6022,
      "strate": 6023,
      "Ġchann": 6024,
      "Ġë§ĪìĿĦ": 6025,
      "Ġcamer": 6026,
      "ëĿ¼ìļ°": 6027,
      "ĠëĨĴìķĦ": 6028,
      "Ġformer": 6029,
      "ë¹Ħë¥¼": 6030,
      "Ġì°¨ì§Ģ": 6031,
      "ĠíĽ¨ìĶ¬": 6032,
      "ned": 6033,
      "ĠíĺĦìĭ¤": 6034,
      "Ġ37": 6035,
      "Ġdesigned": 6036,
      "Ġ31": 6037,
      "Ġì¿": 6038,
      "Ġwoman": 6039,
      "Ġë§Įíģ¼": 6040,
      "ĠPC": 6041,
      "ĠíĿ¥": 6042,
      "Ġê¸°ë²ķ": 6043,
      "ëĮĢë¥¼": 6044,
      "Ġìĭłì²Ń": 6045,
      "Ġrestaur": 6046,
      "Ġìĺ¤íĽĦ": 6047,
      "êµ¬íķĺê³ł": 6048,
      "Ġê³¼íķĻ": 6049,
      "Ġë©ĭ": 6050,
      "Ġìĺ¤ëŀĺ": 6051,
      "ĠëŃĺ": 6052,
      "Ġë§¡": 6053,
      "Ġregist": 6054,
      "Ġnice": 6055,
      "Ġìŀĥ": 6056,
      "ĠInternet": 6057,
      "azure": 6058,
      "Ġremember": 6059,
      "Ġaim": 6060,
      "aily": 6061,
      "ìĶ©": 6062,
      "Ġprotection": 6063,
      "Ġë¶ĦìĦĿíķĺìĺĢëĭ¤": 6064,
      "Ġê²½ìĺģ": 6065,
      "Ġê³¼ìłķìĹĲìĦľ": 6066,
      "ì¤ĳìĹĲ": 6067,
      "Ġshape": 6068,
      "Ġëĭ¬ë¦¬": 6069,
      "oi": 6070,
      "ìłĲìĹĲìĦľ": 6071,
      "Ġfem": 6072,
      "Ġseem": 6073,
      "adem": 6074,
      "Ġê³łìłķ": 6075,
      "Ġresidents": 6076,
      "ĠìĿ´ìĹĲ": 6077,
      "Ġbox": 6078,
      "Ġìµľì¢ħ": 6079,
      "·°": 6080,
      "ĠìĿ´ë¡ł": 6081,
      "Ġê·¸ë¦¼": 6082,
      "sembly": 6083,
      "Ġë°©ìĤ¬": 6084,
      "ĠPer": 6085,
      "Ġcross": 6086,
      "book": 6087,
      "Ġíģ´ë¦Ń": 6088,
      "Ġsimple": 6089,
      "ĠìķłíĶĮë¦¬ì¼ĢìĿ´ìħĺ": 6090,
      "ĠGen": 6091,
      "Ġgenerated": 6092,
      "lier": 6093,
      "Ġbacteria": 6094,
      "ì¦ī": 6095,
      "ĠìľłëŁ½": 6096,
      "Ġevidence": 6097,
      "enced": 6098,
      "íĦ°ë¥¼": 6099,
      "Ġëĳ": 6100,
      "ĠHow": 6101,
      "Ġincreases": 6102,
      "ĠìĭĿë³Ħ": 6103,
      "kg": 6104,
      "IM": 6105,
      "ĠíļįëĵĿ": 6106,
      "uster": 6107,
      "Ġëĵ±ë¡Ŀ": 6108,
      "Ġìĭ¬ê°ģ": 6109,
      "Ġëĭ¬ëŁ¬": 6110,
      "ieved": 6111,
      "EM": 6112,
      "Ġê¸°ë°ĺìľ¼ë¡ľ": 6113,
      "fort": 6114,
      "Ġ35": 6115,
      "Ġachieve": 6116,
      "Ġë°ĽìĿĦ": 6117,
      "vere": 6118,
      "ĠíĻķìĿ¸íķł": 6119,
      "Ġtraditional": 6120,
      "osph": 6121,
      "ìŀĲìĹĲê²Į": 6122,
      "ëĵľìĿĺ": 6123,
      "Ġê·¸ë§Į": 6124,
      "Ġson": 6125,
      "Ġê¸įìłķ": 6126,
      "ĠTO": 6127,
      "ë¶ĢìĿĺ": 6128,
      "Ġpossibility": 6129,
      "ĠìĿĳëĭµ": 6130,
      "ĠëıĻë¬¼": 6131,
      "ìŀ¥ëĭĺ": 6132,
      "Ġì£¼ë¯¼": 6133,
      "Ġreduction": 6134,
      "Ġëĭ¨ë§Ĳ": 6135,
      "From": 6136,
      "Ġdetection": 6137,
      "Ġì§Ģì§Ģ": 6138,
      "Ġhappy": 6139,
      "then": 6140,
      "En": 6141,
      "Ġi": 6142,
      "AL": 6143,
      "Ġmessage": 6144,
      "Ġbasis": 6145,
      "Īëł¨": 6146,
      "rec": 6147,
      "Ġrob": 6148,
      "ĠIP": 6149,
      "êµ¬ê°Ģ": 6150,
      "ìħĺìĿĦ": 6151,
      "ĠìĦŃ": 6152,
      "ĠìĪ¨": 6153,
      "ë¦¬ì¹´": 6154,
      "Ġìłģìĸ´ëıĦ": 6155,
      "Ġì£¼ìĦ¸ìļĶ": 6156,
      "Ġalmost": 6157,
      "ĠëĮĢë¹Ħ": 6158,
      "ê³łìļĶ": 6159,
      "ĠìĤ´ìķĦ": 6160,
      "ëıĻìĿĦ": 6161,
      "Ġíı¬íķ¨íķľëĭ¤": 6162,
      "Ġeasily": 6163,
      "ellig": 6164,
      "ëłī": 6165,
      "Ġsurv": 6166,
      "íķµ": 6167,
      "yle": 6168,
      "Ġìļ°ëł¤": 6169,
      "ëĤĺëıĦ": 6170,
      "Ġíķµìĭ¬": 6171,
      "aughter": 6172,
      "Ġri": 6173,
      "osing": 6174,
      "ban": 6175,
      "Ġrice": 6176,
      "Ġíĺģ": 6177,
      "Ġcurrently": 6178,
      "ĠìĥĿë¬¼": 6179,
      "Ġwall": 6180,
      "vest": 6181,
      "Ġê·¸ëŁ¼": 6182,
      "ħëĭĪëĭ¤": 6183,
      "Ġì§ĵ": 6184,
      "ĠìĮ": 6185,
      "ĠëıĮìĹ°ë³ĢìĿ´": 6186,
      "Ġë§¥": 6187,
      "ĠìŀĲìĦ¸": 6188,
      "Ġcry": 6189,
      "íķĺëł¤ë©´": 6190,
      "Ġdigital": 6191,
      "Ġêµ¬ì²´": 6192,
      "Ġoperating": 6193,
      "Ġëĭ¹ìĭłìĿĺ": 6194,
      "ê·¸ê²ĥ": 6195,
      "ĠíĹĪìļ©": 6196,
      "ëĵ±íķĻêµĲ": 6197,
      "Ġstrength": 6198,
      "ĠëĶĶì§ĢíĦ¸": 6199,
      "Ġë¶Ļ": 6200,
      "Ġì¦Ŀê±°": 6201,
      "bor": 6202,
      "eters": 6203,
      "SO": 6204,
      "ĠWorld": 6205,
      "Ġexperi": 6206,
      "Ġìī¬": 6207,
      "rist": 6208,
      "Ġë§Īì§Ģë§ī": 6209,
      "Ġfast": 6210,
      "26": 6211,
      "Ġconnect": 6212,
      "endant": 6213,
      "Ġë°Ķíĥķ": 6214,
      "ny": 6215,
      "Ġ110": 6216,
      "ìĦŃ": 6217,
      "ership": 6218,
      "ëĲĺë©°": 6219,
      "Ġcosts": 6220,
      "ĠìĪĺìļĶ": 6221,
      "Ġìļ°ë¦¬ìĿĺ": 6222,
      "ulf": 6223,
      "Ġê³µê°ľ": 6224,
      "ĠíĻķìĭ¤": 6225,
      "irect": 6226,
      "Ġë°©ë²ķìĿĢ": 6227,
      "cil": 6228,
      "íĻĶê°Ģ": 6229,
      "ĠST": 6230,
      "Ġëķ": 6231,
      "Ġeth": 6232,
      "Ġìĸ¼êµ´": 6233,
      "set": 6234,
      "Ġhur": 6235,
      "Ġcarbon": 6236,
      "ĠìĪĺëĬĶ": 6237,
      "Ġë¶Ģíĥģ": 6238,
      "zy": 6239,
      "Ġimproved": 6240,
      "olitan": 6241,
      "Ġframe": 6242,
      "ĠíĶĦë¡ľìłĿ": 6243,
      "ta": 6244,
      "Ġíĺĳëł¥": 6245,
      "ë´ĩ": 6246,
      "ĠëĤ©": 6247,
      "ëĭ¨ê³Ħ": 6248,
      "Ġì£Ħ": 6249,
      "imens": 6250,
      "Ġcooperation": 6251,
      "ĠìĽĮ": 6252,
      "Ġvariables": 6253,
      "more": 6254,
      "ĠTechnology": 6255,
      "Ġë°ĺë©´": 6256,
      "ì¢Į": 6257,
      "ĠMar": 6258,
      "ĠíķŃëª©": 6259,
      "urs": 6260,
      "ĠMedicine": 6261,
      "Ġemail": 6262,
      "Ġì§Ģìłģ": 6263,
      "Ġê·¸ëĵ¤ìĿĺ": 6264,
      "Ġanti": 6265,
      "íİĺìĿ´ìĬ¤": 6266,
      "Ġplans": 6267,
      "ground": 6268,
      "Ġsatisfaction": 6269,
      "%.": 6270,
      "FFF": 6271,
      "Ġdetected": 6272,
      "ìķŀ": 6273,
      "ĠëĮĢìĭł": 6274,
      "ulating": 6275,
      "ìĤ°ìĿĺ": 6276,
      "ìĭ¤íĹĺ": 6277,
      "Ġpick": 6278,
      "ìĦľë¹ĦìĬ¤": 6279,
      "Ġgave": 6280,
      "ĠìĦ±ê³¼": 6281,
      "yes": 6282,
      "ê·¸ìĿĺ": 6283,
      "ê³µíķĻê³¼": 6284,
      "Ġx": 6285,
      "Ġleav": 6286,
      "ìķ¡ìĿĦ": 6287,
      "Ġlanguage": 6288,
      "¬ìĺģ": 6289,
      "Ġìĺģìĸĳ": 6290,
      "tage": 6291,
      "ropolitan": 6292,
      "Ġang": 6293,
      "ĠìĪĺìłķ": 6294,
      "Ġpaid": 6295,
      "Ġcontaining": 6296,
      "Ġcommercial": 6297,
      "Ġgeneration": 6298,
      "back": 6299,
      "ëĵ¯": 6300,
      "Ġcompetition": 6301,
      "ĠEU": 6302,
      "ĠìĿ¼ì¹ĺ": 6303,
      "ĠíĦ°ì¹ĺ": 6304,
      "Ġsleep": 6305,
      "ĠSa": 6306,
      "ĠìĻ¸êµŃ": 6307,
      "ĠEducation": 6308,
      "ĠìłĦë§Ŀ": 6309,
      "ĠëĦĮ": 6310,
      "Ġword": 6311,
      "ëŀ«íı¼": 6312,
      "Ġê²ĥê³¼": 6313,
      "Ġìĺ¤ìĹ¼": 6314,
      "Ġlength": 6315,
      "Ġê°Ĳëıħ": 6316,
      "ìĸ´ëĸ¤": 6317,
      "ê¼": 6318,
      "erson": 6319,
      "Ġdoll": 6320,
      "ĠëĬĲëĤ": 6321,
      "íķĺìĭŃìĭľìĺ¤": 6322,
      "Ġorganization": 6323,
      "Ġdeep": 6324,
      "ĠìĹ°êµ¬ê°Ģ": 6325,
      "Ġë§ĲìĿ´": 6326,
      "ê·¸ëĥ¥": 6327,
      "ography": 6328,
      "ĠTrans": 6329,
      "ìĬ¤ëŁ½": 6330,
      "ĠCor": 6331,
      "ĠCharacter": 6332,
      "45": 6333,
      "Ġìĺ¨ëĿ¼ìĿ¸": 6334,
      "Ġì¡°ìłķ": 6335,
      "ìĻĢìĿĺ": 6336,
      "Ġuh": 6337,
      "Ġinvestigated": 6338,
      "Ġcontinue": 6339,
      "Mr": 6340,
      "Ġì¼ĢìĿ´": 6341,
      "ìĥĿíĻľ": 6342,
      "ĠëĤ´ëł¤": 6343,
      "ĠìĹ°êµ¬ë¥¼": 6344,
      "ëįĶëĿ¼ëıĦ": 6345,
      "ĠìŀĲëıĻì°¨": 6346,
      "ìĬ¤ìĹĲ": 6347,
      "Ġsympt": 6348,
      "Ġguess": 6349,
      "Ġprices": 6350,
      "Ġefficient": 6351,
      "Ġë¸Ķë¡Ŀ": 6352,
      "type": 6353,
      "ëĲĺìĹĪìĬµëĭĪëĭ¤": 6354,
      "Ġë¶Ģìłķ": 6355,
      "Ġë¶Ģëª¨": 6356,
      "Ġê¸°ì¡´ìĿĺ": 6357,
      "utr": 6358,
      "Ġì£¼ëĬĶ": 6359,
      "ĠíĶĦëłĪ": 6360,
      "ĠìĤ¬ëŀĮìĿĢ": 6361,
      "anna": 6362,
      "ìĪĺë¡ľ": 6363,
      "OT": 6364,
      "ë¦¬ìĺ¤": 6365,
      "Ġíķĺê¸°": 6366,
      "Ġì£¼ìĭľ": 6367,
      "Ġadvant": 6368,
      "ìłģìĿ´ê³ł": 6369,
      "Ġê°Ģê¹Į": 6370,
      "Ġnature": 6371,
      "Ġimmedi": 6372,
      "Ġíķľëĭ¤ëĬĶ": 6373,
      "rad": 6374,
      "ĠMon": 6375,
      "Ġíļ¨ê³¼ê°Ģ": 6376,
      "related": 6377,
      "Ġreference": 6378,
      "Ġdraw": 6379,
      "Ġíķľë²Ī": 6380,
      "Ġtreated": 6381,
      "Ġë§Įëĵł": 6382,
      "ĠìĿĢíĸī": 6383,
      "Ġìļ°ìĦł": 6384,
      "ê·ľëª¨": 6385,
      "ìĹ¬ëŁ¬": 6386,
      "FIG": 6387,
      "ĠIndust": 6388,
      "Ġsir": 6389,
      "Ġìĭ¶ìĿĢ": 6390,
      "Ġmovement": 6391,
      "Ġìłľê³µíķĺëĬĶ": 6392,
      "aging": 6393,
      "Ġëĭ¨ìĿ¼": 6394,
      "Ġconnection": 6395,
      "ĠShe": 6396,
      "Ġemot": 6397,
      "tery": 6398,
      "Ġrecognized": 6399,
      "Ġindustrial": 6400,
      "pm": 6401,
      "ĠíĻķìĤ°": 6402,
      "isc": 6403,
      "ìĨĮëħĦ": 6404,
      "ëĭ¤ìĭľ": 6405,
      "ĠìĥĿì¡´": 6406,
      "Ġtheory": 6407,
      "ocol": 6408,
      "Ġë´ī": 6409,
      "Ġswe": 6410,
      "ì§ĢìĹĲìĦľ": 6411,
      "ĠìĹĨìĿĦ": 6412,
      "Ġrain": 6413,
      "Ġactual": 6414,
      "ë°ĸìĹĲ": 6415,
      "Ġìľłë°ľ": 6416,
      "ĠMethod": 6417,
      "IP": 6418,
      "Ġexchange": 6419,
      "ĠManagement": 6420,
      "soft": 6421,
      "Ġship": 6422,
      "Ġëªħëł¹": 6423,
      "Ġgra": 6424,
      "Ġmonitor": 6425,
      "Ġir": 6426,
      "Ġanim": 6427,
      "md": 6428,
      "íıīê°Ģ": 6429,
      "ëĵľê°Ģ": 6430,
      "ĠìłĦíĺĢ": 6431,
      "cular": 6432,
      "Ġì¤ĳìĹĲ": 6433,
      "Ġboy": 6434,
      "Ġì°¸ì¡°": 6435,
      "35": 6436,
      "Ġê°ĳ": 6437,
      "ĠëŁ¬": 6438,
      "Ġten": 6439,
      "Ġcook": 6440,
      "ĠíĻĺìŀĲìĿĺ": 6441,
      "Ġforward": 6442,
      "Ġê¸°ìĹ¬": 6443,
      "Ġë¶Īêµ¬íķĺê³ł": 6444,
      "lation": 6445,
      "Ġrecognition": 6446,
      "ìģľ": 6447,
      "ĠFor": 6448,
      "Ġìĺ¬íķ´": 6449,
      "Ġfinding": 6450,
      "ëł¤ë©´": 6451,
      "ìĥģìĿĢ": 6452,
      "Ġê°ĢëĬĶ": 6453,
      "Ġcand": 6454,
      "Ġprepar": 6455,
      "Ġblack": 6456,
      "ĠëĳĲê³ł": 6457,
      "ë¶ĦìĿĦ": 6458,
      "Ġdegree": 6459,
      "where": 6460,
      "ocks": 6461,
      "Ġíķ¨ìľł": 6462,
      "ĠëĤĺê°Ģ": 6463,
      "List": 6464,
      "Ġrevealed": 6465,
      "ait": 6466,
      "ze": 6467,
      "Ġge": 6468,
      "ìŀĪëĭ¤": 6469,
      "Ġsold": 6470,
      "Ġcover": 6471,
      "son": 6472,
      "Ġì¤ĳìķĻ": 6473,
      "Ġë°ĺë³µ": 6474,
      "Ġmoment": 6475,
      "Ġë°Ľìķĺëĭ¤": 6476,
      "ìľĦìĹĲ": 6477,
      "Ġ.": 6478,
      "ìłľìĹĲ": 6479,
      "ĠíĻľìĦ±íĻĶ": 6480,
      "Ġsays": 6481,
      "ĠìĨĮíĶĦíĬ¸ìĽ¨ìĸ´": 6482,
      "Ġë²ķë¥ł": 6483,
      "ĠìłĦëł¥": 6484,
      "Ġbal": 6485,
      "Ġì¹¼": 6486,
      "Ġëıħë¦½": 6487,
      "Ġportion": 6488,
      "ĠìķĪìĹĲ": 6489,
      "Ġfund": 6490,
      "Ġbuilt": 6491,
      "Ġì§ĳìĹĲ": 6492,
      "Ġpie": 6493,
      "Ġcamp": 6494,
      "Ġcustomer": 6495,
      "Ġëĭ¨ìĪľ": 6496,
      "Ġbed": 6497,
      "ĠìķĶíĺ¸": 6498,
      "ĠDevelopment": 6499,
      "íĩ´": 6500,
      "ĠJu": 6501,
      "ĠFIG": 6502,
      "Ġpresence": 6503,
      "Ġinternal": 6504,
      "Ġspeak": 6505,
      "Ġê³¡": 6506,
      "ĠPar": 6507,
      "ĠID": 6508,
      "ĠìĻķ": 6509,
      "íľ´": 6510,
      "Ġenzym": 6511,
      "Ġintroduced": 6512,
      "ĠìĭĿë¬¼": 6513,
      "Ġì°¨ìĿ´ë¥¼": 6514,
      "ricultural": 6515,
      "Ġessential": 6516,
      "Ġsoftware": 6517,
      "fully": 6518,
      "Ġcode": 6519,
      "ĠëĤĺìĺ¨": 6520,
      "ìĿ´ê±´": 6521,
      "Ġidentify": 6522,
      "Also": 6523,
      "Ġelectric": 6524,
      "ĠìĻĶëĭ¤": 6525,
      "Ġvoice": 6526,
      "Ġê°Ĳì§Ģ": 6527,
      "Ġì¡°ìĦ±": 6528,
      "ĠëĤĺíĥĢëĤ¸ëĭ¤": 6529,
      "Ġfollows": 6530,
      "ë³´íĹĺ": 6531,
      "ĠìĤ¬ìļ©íķľ": 6532,
      "ĠHospital": 6533,
      "Ġ2015": 6534,
      "Ġforce": 6535,
      "íĬ¸ëĬĶ": 6536,
      "Ġë¹Ħë¡¯": 6537,
      "ĠìĨĮëĵĿ": 6538,
      "ìĵ": 6539,
      "ĠGerm": 6540,
      "íķ¨ìĹĲ": 6541,
      "Ġsecret": 6542,
      "ĠìľłìĤ¬íķľ": 6543,
      "ĠPCR": 6544,
      "Ġphase": 6545,
      "Rec": 6546,
      "Ġë§ĲìĿ´ìķ¼": 6547,
      "Ġë²Ĺ": 6548,
      "íĬ¸ê°Ģ": 6549,
      "ìĿ¼ë¡ľ": 6550,
      "Ġtried": 6551,
      "Ġë³ĢíĻĺ": 6552,
      "ĠMinister": 6553,
      "Ġê³§": 6554,
      "Ġwire": 6555,
      "Every": 6556,
      "Ġpurchase": 6557,
      "Ġê·¸ê±¸": 6558,
      "Ġappropriate": 6559,
      "Ġsuggested": 6560,
      "Ġimages": 6561,
      "Ġexerc": 6562,
      "ĠChung": 6563,
      "ĠìŀĳëıĻ": 6564,
      "itro": 6565,
      "ì¢ĭìķĦ": 6566,
      "jin": 6567,
      "ney": 6568,
      "Ġì¤ĺ": 6569,
      "Ġëĭ´ëĭ¹": 6570,
      "Ġë°°ìļ°": 6571,
      "rative": 6572,
      "Ġíķľëĭ¤ê³ł": 6573,
      "hentic": 6574,
      "Ġìļ¸": 6575,
      "Ġconsumption": 6576,
      "Ġìłľê¸°": 6577,
      "actions": 6578,
      "ĠëĬ¦": 6579,
      "Ġtast": 6580,
      "ĠìķĦì¹¨": 6581,
      "abric": 6582,
      "Ġthank": 6583,
      "ìľ¨ìĿ´": 6584,
      "RNA": 6585,
      "His": 6586,
      "ìĸ´ê°Ģ": 6587,
      "ìĨĮê°Ģ": 6588,
      "ìĹĺ": 6589,
      "ĠëıĪìĿĦ": 6590,
      "Ġcircuit": 6591,
      "atabase": 6592,
      "hesis": 6593,
      "plic": 6594,
      "Ġerror": 6595,
      "Ġce": 6596,
      "Ġheav": 6597,
      "Ġë°ľìĥĿíķĺëĬĶ": 6598,
      "êº¼": 6599,
      "ĠEffect": 6600,
      "Ġmode": 6601,
      "cont": 6602,
      "Ġì§ĢëıĦ": 6603,
      "ĠPre": 6604,
      "Ġì°¸ìĦĿ": 6605,
      "ìĽ¨": 6606,
      "Ġvirtual": 6607,
      "ĠPr": 6608,
      "Ġë¶Ħíķ´": 6609,
      "Ġhighly": 6610,
      "Ġì½ľ": 6611,
      "Ġreleased": 6612,
      "ë¤": 6613,
      "ĠìĪĺì¶ľ": 6614,
      "Ġhands": 6615,
      "Ġimprovement": 6616,
      "Ġê³µê³µ": 6617,
      "anger": 6618,
      "Ġì§Īë³ĳ": 6619,
      "Ġgain": 6620,
      "ë§ĮìĿĦ": 6621,
      "Ġê°ĲìĤ¬íķ©ëĭĪëĭ¤": 6622,
      "ĠJung": 6623,
      "resh": 6624,
      "ìĦ¸ê³Ħ": 6625,
      "ìĪĺìĹĲ": 6626,
      "Ġgreater": 6627,
      "Ġìĭ¶ìĬµëĭĪëĭ¤": 6628,
      "33": 6629,
      "Ġquite": 6630,
      "Ġrout": 6631,
      "Ġìĭ¤ìĭľìĺĪìĹĲ": 6632,
      "ì¹¼": 6633,
      "urrent": 6634,
      "mentation": 6635,
      "Ġimplemented": 6636,
      "Ġë³´ìľł": 6637,
      "Ġconstit": 6638,
      "Ġsection": 6639,
      "ĠìľłìĿĺíķľ": 6640,
      "ervation": 6641,
      "íĢ": 6642,
      "Ġìķī": 6643,
      "Ġmulti": 6644,
      "Ġdistance": 6645,
      "Ġcomposition": 6646,
      "íĬ¸ìĹĲ": 6647,
      "ĠíļĮìĿĺ": 6648,
      "Ġclinical": 6649,
      "ĠEnglish": 6650,
      "Ġwrit": 6651,
      "cre": 6652,
      "Ġoccurred": 6653,
      "Ġteachers": 6654,
      "ĠìĭľìĬ¤íħľìĿĺ": 6655,
      "ĠëģĮ": 6656,
      "Ġequipment": 6657,
      "ë²łìĿ´ìĬ¤": 6658,
      "Ġëĭ¹ìĭłìĿĢ": 6659,
      "íĸĪìľ¼ë©°": 6660,
      "Ġcouldn": 6661,
      "Ġë°©ì§Ģ": 6662,
      "Ġëª¨íĺķ": 6663,
      "Ġdelivery": 6664,
      "Ġë°Ķíĥķìľ¼ë¡ľ": 6665,
      "Ġìĸ¸ê¸ī": 6666,
      "Ġball": 6667,
      "icrosoft": 6668,
      "Ġìĭľê°ģ": 6669,
      "ëıĪ": 6670,
      "Ġdivided": 6671,
      "uel": 6672,
      "Ġregular": 6673,
      "Ġliqu": 6674,
      "ĠëĭĪ": 6675,
      "ĠìĦľìĹ´": 6676,
      "Ġlat": 6677,
      "ĠíĶĮëŀ«íı¼": 6678,
      "uge": 6679,
      "ìģĺ": 6680,
      "ĠCommittee": 6681,
      "Ġcold": 6682,
      "ìĿ´ê²Į": 6683,
      "Ġëĭ¹ìĭľ": 6684,
      "Maybe": 6685,
      "ĠìĺĪìķ½": 6686,
      "ë¬¼ì§Ī": 6687,
      "ê°ĻìĿĢ": 6688,
      "Ġoriginal": 6689,
      "sych": 6690,
      "110": 6691,
      "ë¬¼ë¡ł": 6692,
      "ĠìĨĮìľł": 6693,
      "Ġê°ľë³Ħ": 6694,
      "Ġê°ĴìĿĦ": 6695,
      "phas": 6696,
      "ìĭľì¼°ëĭ¤": 6697,
      "Ġê³µìłķ": 6698,
      "Ġë³´ê±´": 6699,
      "Ġìĺ¨ëıĦ": 6700,
      "íĸĪì§Ģë§Į": 6701,
      "íķĺìŀĲ": 6702,
      "Ġcredit": 6703,
      "Ġbaby": 6704,
      "Ġë°ĽëĬĶ": 6705,
      "Ġintroduce": 6706,
      "ë§Įìķ½": 6707,
      "Ġcitiz": 6708,
      "ĠYeah": 6709,
      "ificial": 6710,
      "Ġìĭľë¯¼": 6711,
      "Ġrot": 6712,
      "ë¨¹": 6713,
      "Ġê¼Ń": 6714,
      "Ġì²´ê³Ħ": 6715,
      "ìĹĦë§Ī": 6716,
      "Ġëª¨ëĭĪ": 6717,
      "Ġlooks": 6718,
      "Ġfeatures": 6719,
      "Ġdaily": 6720,
      "Ġyourself": 6721,
      "ì£¼ìĦ¸ìļĶ": 6722,
      "Ġê°Ħíĺ¸": 6723,
      "ĠíĻķì§Ħ": 6724,
      "ĠìĿ¸ê³µ": 6725,
      "Ġsuff": 6726,
      "lder": 6727,
      "ìľ¨ìĿĦ": 6728,
      "ìĻķ": 6729,
      "Ġê±°ì£ł": 6730,
      "Ġê·¸ê±´": 6731,
      "ids": 6732,
      "vert": 6733,
      "Ġevents": 6734,
      "Ġstrengthen": 6735,
      "cement": 6736,
      "Ġpretty": 6737,
      "Ġê°Ģì¹ĺ": 6738,
      "Ġrespond": 6739,
      "Ġfer": 6740,
      "ë¶ĢìĹĲ": 6741,
      "ë§Ļ": 6742,
      "Ġíĺ¸íħĶ": 6743,
      "Ġready": 6744,
      "band": 6745,
      "ĠëıĦì°©": 6746,
      "Ġê·¸ê²ĥìĿĢ": 6747,
      "Ġì±": 6748,
      "Ġê°Ģìĥģ": 6749,
      "Ġconven": 6750,
      "rical": 6751,
      "ĠìķĦë§Ī": 6752,
      "Ġdog": 6753,
      "ĠëĶĶìŀĲìĿ¸": 6754,
      "Ġacross": 6755,
      "ê·¸ëŁ°ëį°": 6756,
      "Ġíı¬íķ¨íķľ": 6757,
      "Ġ2018": 6758,
      "Ġrepresentative": 6759,
      "Ġgenes": 6760,
      "ë§ĮìĿ´": 6761,
      "íŀĮ": 6762,
      "ì¡°ìĤ¬": 6763,
      "``": 6764,
      "EO": 6765,
      "Ġpolicies": 6766,
      "nel": 6767,
      "ula": 6768,
      "//": 6769,
      "Ġcris": 6770,
      "Ġoverall": 6771,
      "Ġìľłìļ©": 6772,
      "Ġdepending": 6773,
      "Ġë³µìŀ¡": 6774,
      "28": 6775,
      "Ġmaximum": 6776,
      "ĠEnvironment": 6777,
      "ë´¤": 6778,
      "ĠìłĦë¬¸ê°Ģ": 6779,
      "uth": 6780,
      "Ġapproach": 6781,
      "orks": 6782,
      "ĠNa": 6783,
      "Ġboard": 6784,
      "Ġemployees": 6785,
      "Or": 6786,
      "Ġnuclear": 6787,
      "ĠAll": 6788,
      "gery": 6789,
      "idge": 6790,
      "Ġtested": 6791,
      "MA": 6792,
      "Uh": 6793,
      "pir": 6794,
      "Ġitself": 6795,
      "Ġexpressed": 6796,
      "ë³´ëĭ¤ëĬĶ": 6797,
      "Ġopening": 6798,
      "Ġpractice": 6799,
      "Ġdelay": 6800,
      "ë°ĶìĿ¼": 6801,
      "ê³łë¥¼": 6802,
      "Ġ198": 6803,
      "ì¡°ê±´": 6804,
      "ĠBusan": 6805,
      "ĠìĿĮìĦ±": 6806,
      "Ġê²ª": 6807,
      "Ġpoor": 6808,
      "íķĺê²łìĬµëĭĪëĭ¤": 6809,
      "Ġlonger": 6810,
      "bit": 6811,
      "Ġintention": 6812,
      "Ġpub": 6813,
      "Ġcorrect": 6814,
      "overy": 6815,
      "ì¶°": 6816,
      "ĠCour": 6817,
      "Ġstation": 6818,
      "Ġbegan": 6819,
      "ìĸ´ëĸ»ê²Į": 6820,
      "ìĭ¤ìĿĦ": 6821,
      "Ġoverse": 6822,
      "iles": 6823,
      "Ġë°©ìķĪ": 6824,
      "eared": 6825,
      "Go": 6826,
      "Ġcert": 6827,
      "Ġ150": 6828,
      "ĠíĮ¬": 6829,
      "ĠëĤĺìĻĢ": 6830,
      "Ġaccident": 6831,
      "ĠíķŃê³µ": 6832,
      "ìŀĲëĵ¤ìĿĺ": 6833,
      "íķĺëĭ¤ëĬĶ": 6834,
      "ì°¨ìĽĲ": 6835,
      "Ġled": 6836,
      "Ġ45": 6837,
      "Ġìĩ¼": 6838,
      "anch": 6839,
      "ë¶Ģê°Ģ": 6840,
      "íĨ¤": 6841,
      "Ġmachine": 6842,
      "Ġìŀ¥ê¸°": 6843,
      "ĠíĶĮëłĪìĿ´": 6844,
      "ìĬĪ": 6845,
      "Ġíĸīë³µ": 6846,
      "Ġhousehold": 6847,
      "íĬ¸ë¡ľ": 6848,
      "ë¬¼ìĹĲ": 6849,
      "ì¤ĳêµŃ": 6850,
      "Ġëı¼ìļĶ": 6851,
      "Azure": 6852,
      "Ġcalculated": 6853,
      "Ġfill": 6854,
      "ìĬ·": 6855,
      "Ġfunctions": 6856,
      "eople": 6857,
      "inding": 6858,
      "Ġë°©ìĨ¡": 6859,
      "Ġ2016": 6860,
      "Ġstored": 6861,
      "ìķĦìĿ´": 6862,
      "ëħģ": 6863,
      "Ġestimated": 6864,
      "ĠìĭľëıĦ": 6865,
      "house": 6866,
      "Ġexpress": 6867,
      "ê²½ì°°": 6868,
      "ìĦ¸ë¥¼": 6869,
      "iful": 6870,
      "Ġprograms": 6871,
      "ëĮĢê°Ģ": 6872,
      "sequ": 6873,
      "Ġsqu": 6874,
      "ĠíĻĶë©´": 6875,
      "ĠìłģìĿ´": 6876,
      "ìķĦê°Ģ": 6877,
      "Ġë¬¼ë¡ł": 6878,
      "ëĲĺìĹĪê³ł": 6879,
      "ĠëĮĢíķ´ìĦľëĬĶ": 6880,
      "Ġíĭ°": 6881,
      "enses": 6882,
      "Ġì¹´ë©ĶëĿ¼": 6883,
      "ĠëķĮê¹Įì§Ģ": 6884,
      "Ġë°°ì¶ľ": 6885,
      "Ġì¥Ĳ": 6886,
      "ìħĢ": 6887,
      "ĠíĻķìĿ¸íķĺìĺĢëĭ¤": 6888,
      "ĠêµĲíĨµ": 6889,
      "ĠìĿĺë¬´": 6890,
      "ĠìĿĺì¡´": 6891,
      "ino": 6892,
      "ĠHigh": 6893,
      "ĠëĤ´ìļ©ìĿĦ": 6894,
      "Ġanalyze": 6895,
      "ĠìĤ´íİ´ë³´": 6896,
      "ĠìĿ´ë©Ķ": 6897,
      "Ġâ": 6898,
      "Ġê¸°íĽĦ": 6899,
      "ìĨĶ": 6900,
      "Ġusually": 6901,
      "isions": 6902,
      "Ġgoal": 6903,
      "íĻį": 6904,
      "Ġmention": 6905,
      "ĠëıĦì¶ľ": 6906,
      "estival": 6907,
      "Ġparts": 6908,
      "Ġreaction": 6909,
      "ĠìłĪëĮĢ": 6910,
      "Ġemphas": 6911,
      "Ġpreviously": 6912,
      "Ġê·¸ëłĩì§Ģ": 6913,
      "Ġê·ľì¹Ļ": 6914,
      "ĠìĻĦìłĦ": 6915,
      "Ġways": 6916,
      "ĠAN": 6917,
      "ĠìĨĶ": 6918,
      "ê³Ħíļį": 6919,
      "Ġeveryone": 6920,
      "Ġë²Ķì£Ħ": 6921,
      "Ġëĭ¬ëĿ¼": 6922,
      "ĠìĺĪìĪł": 6923,
      "ĠìķĮëł¤ìł¸": 6924,
      "Ġmagn": 6925,
      "ë®¬": 6926,
      "Ġtraffic": 6927,
      "Ġsho": 6928,
      "Ġmal": 6929,
      "Ġì§Ģê¸ī": 6930,
      "Ġìľłëªħ": 6931,
      "Ġfavor": 6932,
      "Ġhair": 6933,
      "Ġcere": 6934,
      "met": 6935,
      "ê±°ë¦¬": 6936,
      "Ġmainly": 6937,
      "ĠìĺģêµŃ": 6938,
      "Park": 6939,
      "ĠëĤ´ìĹĲìĦľ": 6940,
      "Ġinnov": 6941,
      "ĠìĤ¬ìļ©ìŀĲìĿĺ": 6942,
      "Ġê·¸ëĵ¤ìĿ´": 6943,
      "icted": 6944,
      "Ġguarant": 6945,
      "Ġê·¸ëĵ¤ìĿĢ": 6946,
      "íķľíİ¸": 6947,
      "ëĲĺê¸°": 6948,
      "ĠíĨłìĸĳ": 6949,
      "Ġcolon": 6950,
      "kn": 6951,
      "Ġvolume": 6952,
      "Ġprocedure": 6953,
      "Ġcentral": 6954,
      "atives": 6955,
      "íı´": 6956,
      "ocyt": 6957,
      "TA": 6958,
      "encies": 6959,
      "ĠíļĮë³µ": 6960,
      "ults": 6961,
      "hern": 6962,
      "Ġëĭ¨ìľĦ": 6963,
      "DP": 6964,
      "Ġì±ĦëĦĲ": 6965,
      "cop": 6966,
      "ender": 6967,
      "ĠDesign": 6968,
      "120": 6969,
      "ites": 6970,
      "Ġupper": 6971,
      "ìĿ´ìĸ´": 6972,
      "Ġë³´ìŀ¥": 6973,
      "ë¡Ńê²Į": 6974,
      "ĠëĬ¥ëł¥": 6975,
      "onom": 6976,
      "ho": 6977,
      "ê´ľì°®": 6978,
      "ĠAI": 6979,
      "Ġë°Ľìķĺ": 6980,
      "Ġsubst": 6981,
      "ĠíĶ¼ê³ł": 6982,
      "ë¶Ģëª¨": 6983,
      "ĠParty": 6984,
      "hemat": 6985,
      "ĠGang": 6986,
      "ĠíķĦìĪĺ": 6987,
      "Ġê°Ķ": 6988,
      "Ġprocessor": 6989,
      "Ġexplained": 6990,
      "Ġstre": 6991,
      "Ġfuck": 6992,
      "Ġliter": 6993,
      "Ġstrategy": 6994,
      "Ġcorporate": 6995,
      "ĠìĿ´ìĿµ": 6996,
      "ĠGovernment": 6997,
      "Ġaspect": 6998,
      "ìĬ¤íĥĢ": 6999,
      "Ġplatform": 7000,
      "ĠControl": 7001,
      "ĠìĹ¬ê¸°ìĦľ": 7002,
      "ĠëĿ¼ìĿ´": 7003,
      "Ġanswer": 7004,
      "Ġplayers": 7005,
      "Ġtakes": 7006,
      "Ġlab": 7007,
      "Ġhon": 7008,
      "ìĦľìĹĲ": 7009,
      "ì¼ĵ": 7010,
      "ĠíĮĮìĿ¼": 7011,
      "Based": 7012,
      "ĠìĹ¬ë¶Ģë¥¼": 7013,
      "Ġweb": 7014,
      "Ġregulations": 7015,
      "Ġult": 7016,
      "Ġwanna": 7017,
      "ĠOff": 7018,
      "Ġê²½ìļ°ìĹĲ": 7019,
      "ĠCan": 7020,
      "Ġespecially": 7021,
      "Ġpoll": 7022,
      "Ġproport": 7023,
      "Ġmechanism": 7024,
      "Ġdry": 7025,
      "Ġeyes": 7026,
      "Ġì°¸ê°Ģ": 7027,
      "Ġìľµ": 7028,
      "Ġìª½": 7029,
      "Ġevaluated": 7030,
      "Ġë°©ìĭĿìľ¼ë¡ľ": 7031,
      "Ġeducational": 7032,
      "ëĭĪìĬ¤": 7033,
      "BC": 7034,
      "Ġprobably": 7035,
      "Ġmodels": 7036,
      "Ġdefin": 7037,
      "ìºĲ": 7038,
      "Ġmaybe": 7039,
      "Ġdied": 7040,
      "ying": 7041,
      "Ġconsidering": 7042,
      "ĠìłĦê·¹": 7043,
      "gun": 7044,
      "Ġfoot": 7045,
      "Ġê³łìļ©": 7046,
      "27": 7047,
      "Ġì£¼ëª©": 7048,
      "ĠìħĢ": 7049,
      "Ġcomponents": 7050,
      "ague": 7051,
      "uty": 7052,
      "Ġclimate": 7053,
      "ê°Ķ": 7054,
      "ìĨĮìĹĲ": 7055,
      "ìłľìĸ´": 7056,
      "Ġknew": 7057,
      "ê²½ìłľ": 7058,
      "Ġplasm": 7059,
      "iate": 7060,
      "Ġarri": 7061,
      "Ġhom": 7062,
      "Ġreality": 7063,
      "ĠìĪĺìĿµ": 7064,
      "Among": 7065,
      "íķĺëĤĺ": 7066,
      "Ġcompens": 7067,
      "Ġë°©ë²ķìľ¼ë¡ľ": 7068,
      "ìĦ¯": 7069,
      "MP": 7070,
      "Ġë¯¸ìķĪ": 7071,
      "Ġíĺ¹ìĿĢ": 7072,
      "Ġvillage": 7073,
      "Ġelements": 7074,
      "ĠëĶ¸": 7075,
      "ë¥´ê³ł": 7076,
      "lig": 7077,
      "ìķĦë¬´": 7078,
      "ĠJae": 7079,
      "ì£½": 7080,
      "Ġcrisis": 7081,
      "íħĮìĿ´": 7082,
      "word": 7083,
      "Ġlives": 7084,
      "Ġwhite": 7085,
      "Ġfilter": 7086,
      "Ġë°ľëĭ¬": 7087,
      "light": 7088,
      "ê³¼ìłķ": 7089,
      "Ġì°į": 7090,
      "Ġplants": 7091,
      "Ġpage": 7092,
      "Ġselection": 7093,
      "Ġì²Ļ": 7094,
      "Ġë¯¼ê°Ĳ": 7095,
      "Ġfair": 7096,
      "yp": 7097,
      "ìī¬": 7098,
      "ë¬¸ìĿĦ": 7099,
      "Ġvalid": 7100,
      "ĠInformation": 7101,
      "Ġregions": 7102,
      "Ġìı": 7103,
      "Ġsymptoms": 7104,
      "ĠëĲĺì§Ģ": 7105,
      "ë°ĶìĿ´ëŁ¬ìĬ¤": 7106,
      "íĺľ": 7107,
      "ĠìłģìłĪíķľ": 7108,
      "add": 7109,
      "Ġinfect": 7110,
      "ì»¨": 7111,
      "Ġshowing": 7112,
      "Ġê·¸ëŀ¬": 7113,
      "Ġunderstanding": 7114,
      "500": 7115,
      "Ġbehind": 7116,
      "Ġê·¸ë¥¼": 7117,
      "Ġplanning": 7118,
      "Ġinj": 7119,
      "íķĺê¸°ë¡ľ": 7120,
      "ìŀ¥ì¹ĺ": 7121,
      "room": 7122,
      "Ġfloor": 7123,
      "Ġvoltage": 7124,
      "Ġtomorrow": 7125,
      "Ġattempt": 7126,
      "Ġìĺ¬ëĿ¼": 7127,
      "Ġì¶Ķì²ľ": 7128,
      "AAAëĬĶ": 7129,
      "ĠëĤĻ": 7130,
      "Ġmyself": 7131,
      "ê²łì£ł": 7132,
      "pat": 7133,
      "Ġsubjects": 7134,
      "rought": 7135,
      "aintiff": 7136,
      "Ġdoor": 7137,
      "Ġê°ĻìĬµëĭĪëĭ¤": 7138,
      "Ġrecommend": 7139,
      "ì§Ģë°©": 7140,
      "ĠìĿĳìļ©": 7141,
      "Ġperfect": 7142,
      "ë¿Ĳë§Į": 7143,
      "ĠëħĦ": 7144,
      "Ġinvolved": 7145,
      "ĠìłĦë°ĺ": 7146,
      "ìĭľíĹĺ": 7147,
      "Ġprinciple": 7148,
      "ĠYoung": 7149,
      "Ġìłľê³µíķł": 7150,
      "ì¢ħìĿĺ": 7151,
      "ìłķì±ħ": 7152,
      "ìĭ¸": 7153,
      "aek": 7154,
      "Ġfight": 7155,
      "Ġfollowed": 7156,
      "Ġcamera": 7157,
      "Ġëª©ë¡Ŀ": 7158,
      "Ġë¹ĦìĬ·": 7159,
      "Ġë¯¸ì¹ĺ": 7160,
      "Ġoverseas": 7161,
      "Ġdecrease": 7162,
      "Ġhell": 7163,
      "Ġavoid": 7164,
      "Ġì°¨ëŁī": 7165,
      "ĠCD": 7166,
      "CP": 7167,
      "TP": 7168,
      "odes": 7169,
      "Ġhor": 7170,
      "ĠìĿ´ê±°": 7171,
      "Ġìľłë¦¬": 7172,
      "ĠíĻĪ": 7173,
      "umb": 7174,
      "ìĭľíĤ¤ê³ł": 7175,
      "organ": 7176,
      "ĠCar": 7177,
      "Ġwants": 7178,
      "empl": 7179,
      "Ġdetails": 7180,
      "Ġrepe": 7181,
      "ĠìĪł": 7182,
      "Ġanyone": 7183,
      "ĠAc": 7184,
      "ĠìĿ´ë²¤": 7185,
      "ĠìŀĪìľ¼ë©´": 7186,
      "ĠData": 7187,
      "ĠGroup": 7188,
      "Ġproviding": 7189,
      "ê´ĢìĿ´": 7190,
      "ĠíĺĪì²Ń": 7191,
      "Ġquickly": 7192,
      "Ġwife": 7193,
      "Ġoffer": 7194,
      "Ġcapacity": 7195,
      "Ġaltern": 7196,
      "Ġì¶Ķìłģ": 7197,
      "ĠìĬ¤íģ¬": 7198,
      "Ġtransmission": 7199,
      "Ġjudgment": 7200,
      "Ġarr": 7201,
      "Ġdepos": 7202,
      "ĠìķĬìķĦìļĶ": 7203,
      "Ġì§ĪíĻĺ": 7204,
      "ê´ĢìĿĢ": 7205,
      "Ġcou": 7206,
      "Ġwish": 7207,
      "Ġ2009": 7208,
      "ĠëĤ¨ìķĦ": 7209,
      "RS": 7210,
      "rew": 7211,
      "Ġì¡°íķ©": 7212,
      "Ġintellig": 7213,
      "iction": 7214,
      "Ġcompletely": 7215,
      "mg": 7216,
      "ĠìĨĮë¦¬": 7217,
      "Ġíĸ¥íĽĦ": 7218,
      "ulum": 7219,
      "ĠìĦŃì·¨": 7220,
      "Ġtechnique": 7221,
      "Ġmm": 7222,
      "elt": 7223,
      "ìĿ¸ê°Ģ": 7224,
      "ĠëĮĢìŀ¥": 7225,
      "Ġcateg": 7226,
      "RI": 7227,
      "Ġvariable": 7228,
      "Ġê²¨": 7229,
      "Ġíķ´ìĦľ": 7230,
      "Im": 7231,
      "ĠCourt": 7232,
      "rown": 7233,
      "Ġmid": 7234,
      "ĠìłĲìĿĦ": 7235,
      "oke": 7236,
      "Ġdocument": 7237,
      "32": 7238,
      "Ġì§ĢìĭĿ": 7239,
      "chit": 7240,
      "pective": 7241,
      "ë°į": 7242,
      "Ġcollection": 7243,
      "Ġresearc": 7244,
      "Ġíĺģìĭł": 7245,
      "Ġml": 7246,
      "ĠíļĮë¡ľ": 7247,
      "ë°¤": 7248,
      "Ġsequence": 7249,
      "ì¿ł": 7250,
      "Ġê±°ì§Ģ": 7251,
      "Ġguid": 7252,
      "ĠKR": 7253,
      "Ġ400": 7254,
      "ìĹĪê³ł": 7255,
      "Ġvariety": 7256,
      "Ġë¹Ħíĸī": 7257,
      "ìĽĲìĹĲìĦľ": 7258,
      "Ġhousing": 7259,
      "rote": 7260,
      "Ġworry": 7261,
      "Ġë³´ëĬĶ": 7262,
      "Ġsea": 7263,
      "Ġ2017": 7264,
      "ëªħìĿĢ": 7265,
      "abil": 7266,
      "grad": 7267,
      "ought": 7268,
      "Ġìķ½ìĨį": 7269,
      "ìĦ¬": 7270,
      "oles": 7271,
      "Ġìļ°ë¦¬ëĤĺëĿ¼": 7272,
      "ruit": 7273,
      "ica": 7274,
      "Ġinstitutions": 7275,
      "Ġbott": 7276,
      "off": 7277,
      "ĠìŀĲë¦¬": 7278,
      "lderly": 7279,
      "Ġìļ´ìłĦ": 7280,
      "ĠìĹ´ë¦°": 7281,
      "Ġê²ĥì²ĺëŁ¼": 7282,
      "ologies": 7283,
      "ĠìĹ°ìĨį": 7284,
      "Ġsites": 7285,
      "ëĭĪìķĦ": 7286,
      "Ġargu": 7287,
      "íķĺìĭł": 7288,
      "Ġcorrelation": 7289,
      "CìĹĲìĦľ": 7290,
      "ĠëĮĢë¶Ģë¶ĦìĿĺ": 7291,
      "ìĿ¼ë¶Ģ": 7292,
      "Ġ<": 7293,
      "Ġwouldn": 7294,
      "Ġparticipate": 7295,
      "Ġmoving": 7296,
      "ux": 7297,
      "ìļĶìĿ¼": 7298,
      "Ģë¡ľë²Į": 7299,
      "Ġvictim": 7300,
      "Ġdeveloping": 7301,
      "Ġexcept": 7302,
      "Ġreceiving": 7303,
      "ĠOn": 7304,
      "ĠíĽĦë³´": 7305,
      "ĠíĸĪìĸ´": 7306,
      "Ġschools": 7307,
      "íľĺ": 7308,
      "SP": 7309,
      "ĠëĦĵ": 7310,
      "Ġbirth": 7311,
      "ĠìĨĮìŀ¬": 7312,
      "Ġinterested": 7313,
      "Ġê±´ìĦ¤": 7314,
      "arily": 7315,
      "Ġtrack": 7316,
      "Ġuseful": 7317,
      "ĠíĻĶíķĻ": 7318,
      "round": 7319,
      "ìĿ¼íķľ": 7320,
      "ĠëĤ´ìĹĲ": 7321,
      "Ġvia": 7322,
      "Ġê´Ģìĭ¬ìĿ´": 7323,
      "Ġchance": 7324,
      "ĠCharacteristics": 7325,
      "ĠëĤĺëıĦ": 7326,
      "Ġê³¼ìłķìĿĦ": 7327,
      "anol": 7328,
      "Ġëĺĳ": 7329,
      "://": 7330,
      "Ġê¸°ìĪłìĿĦ": 7331,
      "ME": 7332,
      "Ġband": 7333,
      "ê²ĥëıĦ": 7334,
      "ĠìŀĬ": 7335,
      "ì°į": 7336,
      "Ġì´¬ìĺģ": 7337,
      "Ġì´īì§Ħ": 7338,
      "ê²©ìĿĦ": 7339,
      "Ġembodiments": 7340,
      "Ġwonder": 7341,
      "ethyl": 7342,
      "ĠíĸĪìĸ´ìļĶ": 7343,
      "Ġêµ´": 7344,
      "ĠJin": 7345,
      "Ġgrowing": 7346,
      "Get": 7347,
      "ĠëĮĢë¡ľ": 7348,
      "Ġinvestigate": 7349,
      "HO": 7350,
      "ĠìłľëĮĢë¡ľ": 7351,
      "ëª¨ëį¸": 7352,
      "Ġdepartment": 7353,
      "Ġcarry": 7354,
      "ĠëĤĺë¥¼": 7355,
      "ìĭľìŀ¥": 7356,
      "âĦ": 7357,
      "ĠìĹĦì²Ń": 7358,
      "ĠModel": 7359,
      "Ġunique": 7360,
      "Ġbudget": 7361,
      "ĠíĶĮëĿ¼ìĬ¤": 7362,
      "aling": 7363,
      "Ġofficials": 7364,
      "Ġhyp": 7365,
      "Name": 7366,
      "íķľëĭ¤ë©´": 7367,
      "Ġimmun": 7368,
      "Ġadvance": 7369,
      "Ġ48": 7370,
      "Ġden": 7371,
      "Ġsubs": 7372,
      "ĠìĪĺìŀħ": 7373,
      "Ġslow": 7374,
      "Ġ36": 7375,
      "ycle": 7376,
      "ìĭľëĭ¤": 7377,
      "elf": 7378,
      "selves": 7379,
      "Ġtur": 7380,
      "Ġbrother": 7381,
      "Ġìĺ·": 7382,
      "Ġsubstrate": 7383,
      "ĠëĵľëŁ¬": 7384,
      "ĠìĻĦë£Į": 7385,
      "ë¥łìĿ´": 7386,
      "Ġmountain": 7387,
      "ĠëĤĺíĥĢëĤ´ëĬĶ": 7388,
      "ëĦĪëĬĶ": 7389,
      "Ġíŀĺëĵ¤": 7390,
      "Ġbeautiful": 7391,
      "Ġë°ĺëĮĢ": 7392,
      "ares": 7393,
      "atically": 7394,
      "Ġelectrode": 7395,
      "Ġìłľì¶ľ": 7396,
      "Ġdiseases": 7397,
      "unk": 7398,
      "ĠDis": 7399,
      "Ġkilled": 7400,
      "Effect": 7401,
      "ìĽĲìľ¼ë¡ľ": 7402,
      "Ġdefined": 7403,
      "ê²łì§Ģë§Į": 7404,
      "CD": 7405,
      "road": 7406,
      "point": 7407,
      "ìĸ´ì§Ħ": 7408,
      "ĠMy": 7409,
      "amed": 7410,
      "ìļ°ìĬ¤": 7411,
      "AV": 7412,
      "Ġë©Ķëª¨ë¦¬": 7413,
      "ube": 7414,
      "ìĿ´ëŀĢ": 7415,
      "ê³¼ëĮĢíķĻ": 7416,
      "ĠìĿ¼ìłķ": 7417,
      "Ġìĺ¤ëĬĶ": 7418,
      "ë¤Ħ": 7419,
      "Ġë°ľíļ¨": 7420,
      "Ġattract": 7421,
      "vious": 7422,
      "íĻľëıĻ": 7423,
      "SS": 7424,
      "phone": 7425,
      "ĠíĪ¬ìĹ¬": 7426,
      "Ġinform": 7427,
      "Ġ2008": 7428,
      "Ġë³´ìĺĢ": 7429,
      "Ġmovie": 7430,
      "Ġìłĳì´ī": 7431,
      "ĠRuss": 7432,
      "ìĿ¸ê³¼": 7433,
      "ëĿ¼ë©´": 7434,
      "Ġrunning": 7435,
      "Ġeye": 7436,
      "Ġë°ĶìĻĢ": 7437,
      "chitect": 7438,
      "Ġê°ķëł¥": 7439,
      "Ġchall": 7440,
      "Ġinterface": 7441,
      "ìľ¨ìĿĢ": 7442,
      "xim": 7443,
      "Ġë°ľìĥĿíķľ": 7444,
      "\".": 7445,
      "ĠAut": 7446,
      "ĠìŀĲë£Įë¥¼": 7447,
      "Ġstudent": 7448,
      "load": 7449,
      "asons": 7450,
      "Ġyield": 7451,
      "ĠìĿ¸ì§Ģ": 7452,
      "ë°©íĸ¥": 7453,
      "cle": 7454,
      "ì¹ĺë£Į": 7455,
      "yu": 7456,
      "êµŃëĤ´": 7457,
      "ĠìĿ¼ìľ¼": 7458,
      "Ġprojects": 7459,
      "Ġapplications": 7460,
      "Ġforest": 7461,
      "34": 7462,
      "Ġcompleted": 7463,
      "Ġfirm": 7464,
      "Ġë³µìĪĺìĿĺ": 7465,
      "ming": 7466,
      "Ġê´Ģëł¨ìĿ´": 7467,
      "ëĵľë¡ľ": 7468,
      "Ġfit": 7469,
      "ache": 7470,
      "íĻľìĦ±": 7471,
      "Ġdiet": 7472,
      "Ġëª¨ëį¸ìĿĦ": 7473,
      "Most": 7474,
      "Any": 7475,
      "ĠìĿ¸íĦ°íİĺìĿ´ìĬ¤": 7476,
      "App": 7477,
      "ëĵľìĹĲ": 7478,
      "ĠDist": 7479,
      "êµ¬ìļĶ": 7480,
      "Ġaffected": 7481,
      "Ġë¬´ìĦł": 7482,
      "Ġprefer": 7483,
      "ë¡łìĿĦ": 7484,
      "ĠBut": 7485,
      "ĠìĦłìĥĿëĭĺ": 7486,
      "Ġharm": 7487,
      "Ġì§ĢëĤľíķ´": 7488,
      "erve": 7489,
      "Ġìŀłìŀ¬": 7490,
      "Ġchannel": 7491,
      "Ġ2019": 7492,
      "eria": 7493,
      "Ġstra": 7494,
      "Ġimmediately": 7495,
      "ĠëıĦë¡ľ": 7496,
      "Ġtests": 7497,
      "Ġnation": 7498,
      "ëª°": 7499,
      "ĠíĸīìĤ¬": 7500,
      "ìĨĮëĬĶ": 7501,
      "Ġíķ©ìĦ±": 7502,
      "Ġë³´ìĿ´": 7503,
      "Ġactively": 7504,
      "ĠEm": 7505,
      "Ġillustr": 7506,
      "Ġsong": 7507,
      "utional": 7508,
      "ëĵľë¦´": 7509,
      "ĠëĪĦê°Ģ": 7510,
      "ĠSm": 7511,
      "ĠJan": 7512,
      "Ġmeasurement": 7513,
      "ìľ¼ëĭĪê¹Į": 7514,
      "Ġë§ĪìĿ´íģ¬": 7515,
      "Ġê·¸ê²ĥìĿ´": 7516,
      "Ġemergency": 7517,
      "Ġëĭ¤ë¥´": 7518,
      "Ġë³´ìĿ´ëĬĶ": 7519,
      "ĠUN": 7520,
      "Ġë¯¸ìĦ¸": 7521,
      "ê±°ëŀĺ": 7522,
      "Ġë¥": 7523,
      "iated": 7524,
      "Ġcivil": 7525,
      "Ġseries": 7526,
      "ivation": 7527,
      "Ġgoes": 7528,
      "Ġíĸīìłķ": 7529,
      "íķĢ": 7530,
      "Ġwaste": 7531,
      "ĠíĺĲ": 7532,
      "nd": 7533,
      "ìĿ´ìĿĺ": 7534,
      "used": 7535,
      "Ġconstruct": 7536,
      "ì£¼ìĭľ": 7537,
      "ĠìķĮìķĺ": 7538,
      "Ġdie": 7539,
      "ĠCult": 7540,
      "inger": 7541,
      "Ġassist": 7542,
      "ĠìłģìĿĳ": 7543,
      "Ġspect": 7544,
      "ĠìĦłíĺ¸": 7545,
      "ëĲ¨": 7546,
      "ì¦Į": 7547,
      "Ġpow": 7548,
      "cel": 7549,
      "Ġê´Ģìĭ¬ìĿĦ": 7550,
      "hers": 7551,
      "Ġìĸ´ëķĮ": 7552,
      "ë²ķìĹĲ": 7553,
      "Ġì¤ĳê°Ħ": 7554,
      "abilities": 7555,
      "ĠìĸĳìĦ±": 7556,
      "Ġdomain": 7557,
      "ë§Įíģ¼": 7558,
      "ĠBank": 7559,
      "ĠëĮĢì¡°êµ°": 7560,
      "While": 7561,
      "ober": 7562,
      "Ġë¯¸ë¦¬": 7563,
      "ĠìĬ¤ìĬ¤ë¡ľ": 7564,
      "ĠíĽĪëł¨": 7565,
      "Ġcitizens": 7566,
      "ëŁŃ": 7567,
      "ĠìĤŃ": 7568,
      "Ġcoup": 7569,
      "29": 7570,
      "Ġthick": 7571,
      "ĠFl": 7572,
      "Ġsector": 7573,
      "Ġê³łë§ĪìĽĮ": 7574,
      "300": 7575,
      "hood": 7576,
      "ì¦ĿìĿĦ": 7577,
      "Ġì¤ĳìĿ¸": 7578,
      "ë¥¨": 7579,
      "ëıĻìĤ°": 7580,
      "Ġexperimental": 7581,
      "Ġdepend": 7582,
      "ìĦľìĿĺ": 7583,
      "75": 7584,
      "yr": 7585,
      "Ġhaven": 7586,
      "Ġë³´ê´Ģ": 7587,
      "ì§Ģë¡ľ": 7588,
      "Ġsuitable": 7589,
      "Ġëĵ±ìľ¼ë¡ľ": 7590,
      "Ġscience": 7591,
      "ama": 7592,
      "overed": 7593,
      "Ġhowever": 7594,
      "Ġkids": 7595,
      "Ġdirector": 7596,
      "Ġunf": 7597,
      "vis": 7598,
      "ĠìłľíĴĪìĿĢ": 7599,
      "ìĺĪë¥¼": 7600,
      "íĦ°ìĿĺ": 7601,
      "LE": 7602,
      "ĠìķĦëĭĪìĹĲìļĶ": 7603,
      "36": 7604,
      "Ġê³¼ê±°": 7605,
      "Ġìķ±": 7606,
      "Ġens": 7607,
      "OD": 7608,
      "ëĪ": 7609,
      "Ġcapt": 7610,
      "Ġcandid": 7611,
      "Ġconflic": 7612,
      "ians": 7613,
      "ĠìĬµ": 7614,
      "Ġstarting": 7615,
      "Ġanimals": 7616,
      "ĠíĹĮ": 7617,
      "ĠìĤ¬ìļ©ëĲĺëĬĶ": 7618,
      "Ġìķŀìľ¼ë¡ľ": 7619,
      "Ġì·¨ìĨĮ": 7620,
      "Ġíķľê³Ħ": 7621,
      "Ġexamined": 7622,
      "ĠìĥģëĮĢìłģìľ¼ë¡ľ": 7623,
      "ĠìķĦë¦Ħ": 7624,
      "ìĿ´ë¯¸": 7625,
      "Ġbond": 7626,
      "ê¸Īìľµ": 7627,
      "Ġëļ": 7628,
      "buk": 7629,
      "Ġworth": 7630,
      "Ġartificial": 7631,
      "Ġë¬¼ìĸ´": 7632,
      "Ġtrial": 7633,
      "ì§Ĳ": 7634,
      "Ġscale": 7635,
      "Ġauthentic": 7636,
      "ëª¬": 7637,
      "Ġil": 7638,
      "ëŀĻ": 7639,
      "ëłĪìĿ´ìħĺ": 7640,
      "Ġfell": 7641,
      "ĠìĤ¬ìĭ¤ìĿĦ": 7642,
      "Ġreli": 7643,
      "Ġì§ģìĽĲ": 7644,
      "ttps": 7645,
      "ĠíĿĲë¦Ħ": 7646,
      "ì¶ĺ": 7647,
      "Ġë¹¼": 7648,
      "31": 7649,
      "ursing": 7650,
      "ëıĦìĭľ": 7651,
      "Ġê¸°íĥĢ": 7652,
      "ĠChrist": 7653,
      "Ġstri": 7654,
      "oub": 7655,
      "ocr": 7656,
      "ë¦¬ìĻĢ": 7657,
      "Ġì§ķ": 7658,
      "Ġseed": 7659,
      "Ġincub": 7660,
      "ĠêµĲìĪĺ": 7661,
      "Ġë°°ìĨ¡": 7662,
      "ìķĪìłĦ": 7663,
      "ĠìĹ¬ëŁ¬ë¶Ħ": 7664,
      "ĠII": 7665,
      "ĠìĤ¬ëŀĮìĿĦ": 7666,
      "ĠìłĦêµŃ": 7667,
      "ĠìķĦíĮĮ": 7668,
      "ĠJust": 7669,
      "itis": 7670,
      "ened": 7671,
      "ëĭĻ": 7672,
      "ì°¬ê°Ģì§Ģ": 7673,
      "ĠìŀĪìĸ´ìķ¼": 7674,
      "Ġcore": 7675,
      "ìĹ¬ê¸°ìĦľ": 7676,
      "ĠíĶĦë¡ľê·¸ëŀ¨ìĿĦ": 7677,
      "Ġprogress": 7678,
      "ĠSun": 7679,
      "Ġë³´ì¡°": 7680,
      "ìĿ´ë¡ľ": 7681,
      "ops": 7682,
      "Ġíı¬íķ¨ëĲľ": 7683,
      "Ġprofessional": 7684,
      "Ġì¤ĳëĭ¨": 7685,
      "Ġê¾¸": 7686,
      "ĠìĽĲì¹Ļ": 7687,
      "asks": 7688,
      "ĠíĭĢ": 7689,
      "Ġê¸°ì¤Ģìľ¼ë¡ľ": 7690,
      "ĠKRW": 7691,
      "Ġstatist": 7692,
      "ëħĦê°Ħ": 7693,
      "êµ¬ëĬĶ": 7694,
      "Ġë³´ìĹ¬ì¤Ģëĭ¤": 7695,
      "ply": 7696,
      "Ġìĸ´ëĸł": 7697,
      "Ġsevere": 7698,
      "ĠìŀĲì£¼": 7699,
      "ëł¤ëĬĶ": 7700,
      "ĠìķĪëĤ´": 7701,
      "Ġstandards": 7702,
      "ëħĦëĮĢ": 7703,
      "Ġbrain": 7704,
      "LD": 7705,
      "ĠAssoci": 7706,
      "ìĿ¼ë°ĺ": 7707,
      "active": 7708,
      "tical": 7709,
      "ĠĠĠĠĠĠĠĠ": 7710,
      "Ġexcell": 7711,
      "Ġê¿Ī": 7712,
      "ë¥ĺë¥¼": 7713,
      "Ġcrime": 7714,
      "Ġtit": 7715,
      "Ġbenefits": 7716,
      "Ġrules": 7717,
      "oring": 7718,
      "Ġpsych": 7719,
      "Ġëį°ëł¤": 7720,
      "Ġtiss": 7721,
      "ĠAmerican": 7722,
      "Ġtrend": 7723,
      "ĠëĤĺíĥĢëĤľ": 7724,
      "Ġì¢ħíķ©": 7725,
      "Ġìĸ´ëł¤ìļ´": 7726,
      "Ġëĭ¨ì§Ģ": 7727,
      "Ġbag": 7728,
      "ëĵ¤ë¡ľ": 7729,
      "omb": 7730,
      "Ġë¶ĢìĹ¬": 7731,
      "Ġchoice": 7732,
      "Ġdisplayed": 7733,
      "ĠìĿ´ëĤł": 7734,
      "ìĥģìľ¼ë¡ľ": 7735,
      "ĠOffice": 7736,
      "Ġengine": 7737,
      "ê±": 7738,
      "Ġtherm": 7739,
      "Ġproduce": 7740,
      "Ġdance": 7741,
      "ĠSang": 7742,
      "ĠìłĦìķķ": 7743,
      "ê²łëĭ¤ê³ł": 7744,
      "ĠReg": 7745,
      "ĠëĤ´ì§Ģ": 7746,
      "Ġìĭ¤íĮ¨": 7747,
      "ructural": 7748,
      "dule": 7749,
      "Ġbelong": 7750,
      "Ġê¶Įíķľ": 7751,
      "Ġplate": 7752,
      "ĠìĪĺì¹ĺ": 7753,
      "Ġuses": 7754,
      "ìļ°ë¦°": 7755,
      "ĠCoun": 7756,
      "Ġë°©ë²ķìĿ´": 7757,
      "Ġliquid": 7758,
      "Ġì§ĢìĹŃìĿĺ": 7759,
      "Ġhotel": 7760,
      "Ġdisapp": 7761,
      "íķĻìĬµ": 7762,
      "ìĥģíĥľ": 7763,
      "íķ´ìĦĿ": 7764,
      "íĸĪëĬĶëį°": 7765,
      "Ġë¶ĪìķĪ": 7766,
      "gl": 7767,
      "ĠMarch": 7768,
      "Ġìŀ¬ë£Į": 7769,
      "Ġnumbers": 7770,
      "Many": 7771,
      "ĠìĤ¬ëĿ¼": 7772,
      "Ġìłĳì¢ħ": 7773,
      "Ġë³ĢëıĻ": 7774,
      "Ġì§Ģíĳľ": 7775,
      "Ġ130": 7776,
      "Ġê°ĢìĦľ": 7777,
      "ued": 7778,
      "Ġëĵ¤ìĸ´ê°Ģ": 7779,
      "}$": 7780,
      "ĠìĤ½": 7781,
      "Ġwild": 7782,
      "Ġton": 7783,
      "Ġ2000": 7784,
      "Ġopportunity": 7785,
      "Ġtransmit": 7786,
      "Ġefforts": 7787,
      "Ġìŀħì¦Ŀ": 7788,
      "IV": 7789,
      "formance": 7790,
      "ë¶Ħíķ´": 7791,
      "ì¤¬": 7792,
      "ìĿ¼ê¹Įì§Ģ": 7793,
      "Ġcomfort": 7794,
      "Ġsummer": 7795,
      "Ġfresh": 7796,
      "ì°¨ë¥¼": 7797,
      "Ġbrand": 7798,
      "Ġupd": 7799,
      "Ġmanager": 7800,
      "Ġorganizations": 7801,
      "ĠFood": 7802,
      "Ġseparate": 7803,
      "Ġinstead": 7804,
      "Ġelection": 7805,
      "ë¹Ħê°Ģ": 7806,
      "Ġorigin": 7807,
      "Ġê°ľìµľ": 7808,
      "More": 7809,
      "Ġìį¨": 7810,
      "ĠíĺĦìŀ¥": 7811,
      "Ġadvantage": 7812,
      "Ġëª¨ìĸĳ": 7813,
      "Ġdiscl": 7814,
      "comm": 7815,
      "99": 7816,
      "ì§ĢìĽĲ": 7817,
      "ĠëıĻìĿĺ": 7818,
      "roph": 7819,
      "Ġë¶ĢìĤ°": 7820,
      "Each": 7821,
      "ĠìĿ¼ìĿĢ": 7822,
      "ìķĦì§ģ": 7823,
      "unt": 7824,
      "Ġprem": 7825,
      "ëħĦë¶ĢíĦ°": 7826,
      "Ġê²½ìļ°ê°Ģ": 7827,
      "Ġcompl": 7828,
      "Right": 7829,
      "Ġyeah": 7830,
      "ĠëĤĺëĪĦ": 7831,
      "ĠBr": 7832,
      "ìĤ¬íķŃ": 7833,
      "Ġëį°ìĿ´íĦ°ë²łìĿ´ìĬ¤": 7834,
      "ê²Ĳ": 7835,
      "Ġgames": 7836,
      "Ġacadem": 7837,
      "ê¸°ì¤Ģ": 7838,
      "ĠìĿµ": 7839,
      "ji": 7840,
      "ĠìĽĥ": 7841,
      "ĠëĨĪ": 7842,
      "ohn": 7843,
      "Ġtask": 7844,
      "ëĤ¬ëĭ¤": 7845,
      "Ġglass": 7846,
      "Ġvacc": 7847,
      "Ġ32": 7848,
      "Ġwarm": 7849,
      "Ġlargest": 7850,
      "íķĺëł¤ëĬĶ": 7851,
      "Ġìŀ¬ë¯¸": 7852,
      "ĠíĨµê³¼": 7853,
      "ĠìłĦìĭľ": 7854,
      "Ġtal": 7855,
      "Ġwave": 7856,
      "ĠRNA": 7857,
      "Ġchemical": 7858,
      "ĠìĿ´ë¦ĦìĿĦ": 7859,
      "Ġilleg": 7860,
      "ìĿ´ìłĦ": 7861,
      "ĠëªħíĻķ": 7862,
      "ëĲĺë©´ìĦľ": 7863,
      "PC": 7864,
      "Ġauthorities": 7865,
      "ooth": 7866,
      "ìľ¼ëĭĪ": 7867,
      "--------": 7868,
      "Ġrestaurant": 7869,
      "rehen": 7870,
      "Ġfields": 7871,
      "ë²ķìĿĺ": 7872,
      "Ġdream": 7873,
      "Ġhar": 7874,
      "Ġleading": 7875,
      "Ġì¤ĳìĹĲìĦľ": 7876,
      "pite": 7877,
      "ĠìĹŃìĤ¬": 7878,
      "Ġadapt": 7879,
      "įìĬ¤íĬ¸": 7880,
      "water": 7881,
      "Ġfunds": 7882,
      "Ġseven": 7883,
      "íĸĪëĭ¤ëĬĶ": 7884,
      "ĠApr": 7885,
      "Ġëģ¼": 7886,
      "aries": 7887,
      "ĠíĮĮíĭ°": 7888,
      "Ġagent": 7889,
      "ms": 7890,
      "êµŃìĿĢ": 7891,
      "Ġìĥģê´Ģê´Ģê³Ħ": 7892,
      "ìĿ¼ë¶ĢíĦ°": 7893,
      "ĠíĨµìłľ": 7894,
      "Ġtrip": 7895,
      "Ab": 7896,
      "Ġinterview": 7897,
      "Ġlip": 7898,
      "ĠFore": 7899,
      "unction": 7900,
      "uary": 7901,
      "Ġë°ĶëĿ¼": 7902,
      "Ġê¸°ìĹħìĿĺ": 7903,
      "Ġ2010": 7904,
      "ĠëĨĴê²Į": 7905,
      "Ġlif": 7906,
      "Ġattached": 7907,
      "Ġimportance": 7908,
      "Ġep": 7909,
      "Ġíķĺë©°": 7910,
      "ëĿ¼ìļ´": 7911,
      "Ġdyn": 7912,
      "íļĮìĤ¬": 7913,
      "SE": 7914,
      "Ġexperiments": 7915,
      "Ġmole": 7916,
      "Ġadministration": 7917,
      "struction": 7918,
      "Ġconcentrations": 7919,
      "Ġë§Ĳíķľëĭ¤": 7920,
      "ë¯¸ëħ¸": 7921,
      "Ġëª»íķľ": 7922,
      "ĠìŀĪëĭ¤ë©´": 7923,
      "Ġadding": 7924,
      "Ġfemale": 7925,
      "ë·°": 7926,
      "ĠìĿ¼ë°ĺìłģìľ¼ë¡ľ": 7927,
      "ĠInter": 7928,
      "aught": 7929,
      "order": 7930,
      "ìłģìĿĦ": 7931,
      "ogenes": 7932,
      "ê´ĢìĿĦ": 7933,
      "ĠìĿ´ëĵ¤": 7934,
      "Ġë¹łë¥¸": 7935,
      "Ġê±°ê¸°": 7936,
      "ë§¹": 7937,
      "Ġcommand": 7938,
      "Ġê°ĢëĬ¥ìĦ±ìĿĦ": 7939,
      "ĠìłķëıĦë¡ľ": 7940,
      "ĠìłĢëħģ": 7941,
      "Ġphosph": 7942,
      "ĠInternational": 7943,
      "Ġë³´íĨµ": 7944,
      "íĽĪ": 7945,
      "ìŀĶ": 7946,
      "Ġprimary": 7947,
      "Ġëª¨ëĭĪíĦ°ë§ģ": 7948,
      "ĠEuropean": 7949,
      "Ġìĺ®": 7950,
      "Ġêº¼": 7951,
      "Ġstaff": 7952,
      "Ġpun": 7953,
      "ìĿ´ê²ĥ": 7954,
      "ĠëĲĺë©´": 7955,
      "Ġì§Ģë¶Ī": 7956,
      "ĠCF": 7957,
      "ĠìĿ´ìłĦìĹĲ": 7958,
      "Ġmetal": 7959,
      "Ġë°ĿíĺĢ": 7960,
      "Ġë³ĢíĻĶìĹĲ": 7961,
      "ĠìľĦìĹĲ": 7962,
      "Ġcrim": 7963,
      "Pl": 7964,
      "Ġbuff": 7965,
      "Ġitem": 7966,
      "ĠëĨįìĹħ": 7967,
      "ëĭĺìĿ´": 7968,
      "Ġadop": 7969,
      "Ar": 7970,
      "Ġisolates": 7971,
      "irus": 7972,
      "Ġì£¼íĥĿ": 7973,
      "Ġë§Ĳê³ł": 7974,
      "ĠKyung": 7975,
      "Ġì§Ģíķĺ": 7976,
      "Ġ2014": 7977,
      "Ġëħ¸ëŀĺ": 7978,
      "Ġíķ´ëıĦ": 7979,
      "Ġeight": 7980,
      "Ġë¬¼ê±´": 7981,
      "Ġwebs": 7982,
      "Ġminute": 7983,
      "Ġcolumn": 7984,
      "Ġformation": 7985,
      "ĠNe": 7986,
      "ìĿ¸ìĹĲ": 7987,
      "íĻĶìĿĺ": 7988,
      "Ġcollege": 7989,
      "Ġê±´ì¡°": 7990,
      "Ġë°©ë²ķìĹĲ": 7991,
      "Ġì¶©ë¶ĦíŀĪ": 7992,
      "Ġexercise": 7993,
      "ĬìĿĢ": 7994,
      "ĠíĶ¼ë¶Ģ": 7995,
      "ider": 7996,
      "ìłĦë¬¸": 7997,
      "Ġëª¨ë°ĶìĿ¼": 7998,
      "ë©´ìĹĲ": 7999,
      "Ġexactly": 8000,
      "ìĪĺìĻĢ": 8001,
      "ĠëĪĦêµ°": 8002,
      "lication": 8003,
      "Ġprofit": 8004,
      "roll": 8005,
      "rd": 8006,
      "ĠìĹĨëĭ¤ê³ł": 8007,
      "Ġallowed": 8008,
      "Ġfailure": 8009,
      "ëŀĺìļĶ": 8010,
      "ixt": 8011,
      "Ġíĺ¼ìŀĲ": 8012,
      "ëĨĢ": 8013,
      "ĠDon": 8014,
      "Ġìĭľë®¬": 8015,
      "Ġmodern": 8016,
      "Ġcomponent": 8017,
      "ê°ĲìĿ´": 8018,
      "Ġthreat": 8019,
      "Ġraised": 8020,
      "Î¼g": 8021,
      "ì²´ë¡ľ": 8022,
      "Ġmice": 8023,
      "ìĨĮëĵĿ": 8024,
      "ë¯¸ìķĪ": 8025,
      "Ġadministrative": 8026,
      "ĠJune": 8027,
      "Ġmic": 8028,
      "Ġë³Ģíĺķ": 8029,
      "itative": 8030,
      "ato": 8031,
      "ë¥ĺìĿĺ": 8032,
      "TH": 8033,
      "Ġê°ĢëĬ¥íķĺëĭ¤": 8034,
      "Ġdecl": 8035,
      "ĠIN": 8036,
      "Ġbuild": 8037,
      "ĠìĿĺë¯¸íķľëĭ¤": 8038,
      "Ġmanufacturing": 8039,
      "ĠìķĪëħķ": 8040,
      "Ġê°Ģìŀħ": 8041,
      "dom": 8042,
      "ëģĶ": 8043,
      "Ġdollars": 8044,
      "ĠSer": 8045,
      "Ġëĭ¹ìĭłìĿĦ": 8046,
      "Ġë²Īíĺ¸": 8047,
      "Ġdatabase": 8048,
      "Ġscore": 8049,
      "Ġtend": 8050,
      "RL": 8051,
      "Ġgrown": 8052,
      "ĠLet": 8053,
      "ìĹ½": 8054,
      "ë²ĶìľĦ": 8055,
      "Ġround": 8056,
      "ë§¨": 8057,
      "ìķĦìķ¼": 8058,
      "circ": 8059,
      "ĠJong": 8060,
      "Ġconsumers": 8061,
      "Ġbound": 8062,
      "ĠìłľìķĪíķľëĭ¤": 8063,
      "ìĹ°êµ¬ìĨĮ": 8064,
      "ìŀ¥ê³¼": 8065,
      "ĠëĽ°ìĸ´": 8066,
      "anged": 8067,
      "ĠYong": 8068,
      "ëĨĪ": 8069,
      "Ġê¸ĪìĨį": 8070,
      "Ġpicture": 8071,
      "Ġtele": 8072,
      "Ġwear": 8073,
      "ìķĦë§Ī": 8074,
      "Ġparticipation": 8075,
      "Ġê±´ì¶ķ": 8076,
      "Ġíķ©ìĿĺ": 8077,
      "ì¡°ì§ģ": 8078,
      "Ġdouble": 8079,
      "ìĦ¸ìĬ¤": 8080,
      "lim": 8081,
      "yo": 8082,
      "estern": 8083,
      "ìĭĿìĹĲ": 8084,
      "Ġcontroller": 8085,
      "LC": 8086,
      "ì§Ŀ": 8087,
      "ially": 8088,
      "ĠëĮ": 8089,
      "Ġíĳ¸": 8090,
      "Ġì§ģìĹħ": 8091,
      "Ġìĭ¶ì§Ģ": 8092,
      "Ġëĭ¤ì¤ĳ": 8093,
      "íļĮë¥¼": 8094,
      "01": 8095,
      "Ġë§ĮëĵľëĬĶ": 8096,
      "Ġë¬´ìĹŃ": 8097,
      "Ġdrive": 8098,
      "ë²Īì§¸": 8099,
      "luded": 8100,
      "Ġê±°ëĿ¼ê³ł": 8101,
      "Ġë¹łë¥´ê²Į": 8102,
      "ìĵ°": 8103,
      "Ġbecomes": 8104,
      "ĠìĿ´ê±´": 8105,
      "Ġallows": 8106,
      "ĠíħĮìĿ´": 8107,
      "Ġfixed": 8108,
      "Î¼m": 8109,
      "¯¤": 8110,
      "utive": 8111,
      "ĠëªħìĿĺ": 8112,
      "Ġcounter": 8113,
      "Ġorganic": 8114,
      "down": 8115,
      "ancy": 8116,
      "gar": 8117,
      "íĴĪìĿĦ": 8118,
      "Ġscen": 8119,
      "Ġsun": 8120,
      "EA": 8121,
      "Ġì£¼ìĭŃìĭľìĺ¤": 8122,
      "amb": 8123,
      "part": 8124,
      "Ġahead": 8125,
      "Ġrelevant": 8126,
      "ê³Ħìķ½": 8127,
      "ession": 8128,
      "Ġregional": 8129,
      "Ġë¡ľë´ĩ": 8130,
      "Ġparameters": 8131,
      "Ġdin": 8132,
      "Ġelderly": 8133,
      "Ġclasses": 8134,
      "ĠìĹ°ëł¹": 8135,
      "occ": 8136,
      "ê³łê°Ģ": 8137,
      "ĠìĤ°íĻĶ": 8138,
      "oding": 8139,
      "Ġwaiting": 8140,
      "íķ´ëıĦ": 8141,
      "37": 8142,
      "Ġì§ĢìĹ°": 8143,
      "Ġìĭ¤ìĭľê°Ħ": 8144,
      "Ġë¬¸ìĿĺ": 8145,
      "ëĵľìĭľ": 8146,
      "Ġsubsc": 8147,
      "ëĮĢìĥģ": 8148,
      "ĠìłĲìĹĲìĦľ": 8149,
      "ë³´ëĬĶ": 8150,
      "ê³ĦìĿĺ": 8151,
      "ìª½ìľ¼ë¡ľ": 8152,
      "Ġgluc": 8153,
      "ĠìķĬìľ¼ë©´": 8154,
      "ìĿ¸ê°ĢìļĶ": 8155,
      "Ġsolve": 8156,
      "Ġë©Ķëī´": 8157,
      "Ġê²½ìłľìłģ": 8158,
      "ëłĢ": 8159,
      "ady": 8160,
      "orb": 8161,
      "Ġì¢ħë¥ĺìĿĺ": 8162,
      "ards": 8163,
      "ĠìĬ¤íĬ¸ëłĪìĬ¤": 8164,
      "Ġbroadcast": 8165,
      "Ġattrib": 8166,
      "uate": 8167,
      "Ġstudied": 8168,
      "ĠíĬ¹ìĿ´": 8169,
      "Ġchoose": 8170,
      "ëĬĶëį°ìļĶ": 8171,
      "ë©¸": 8172,
      "ìķĦë²Ħ": 8173,
      "Ġinject": 8174,
      "ĠëĨįëıĦ": 8175,
      "ĠìŀĪëįĺ": 8176,
      "Ġconvention": 8177,
      "Ġì°¨ëĭ¨": 8178,
      "wide": 8179,
      "Ġproteins": 8180,
      "ĠëĮĢì¶ľ": 8181,
      "Ġprosec": 8182,
      "Ġexcellent": 8183,
      "ìłĢíĿ¬ëĬĶ": 8184,
      "Ġê·¸ëĮĢë¡ľ": 8185,
      "Ġgoods": 8186,
      "Ġadvert": 8187,
      "Ġwireless": 8188,
      "ĠíļĮìłĦ": 8189,
      "Ġinstalled": 8190,
      "Ġnegot": 8191,
      "Ġê´´": 8192,
      "ëŀĳìĬ¤": 8193,
      "Ġë¬»": 8194,
      "ĠíĶĦëłĪìŀĦ": 8195,
      "Ġturned": 8196,
      "Ġìĸ´ì©": 8197,
      "ĠíĻĶíķ©": 8198,
      "ë¥Ń": 8199,
      "Ġweak": 8200,
      "ì»¬": 8201,
      "ifying": 8202,
      "ĠëĤĺìĦľ": 8203,
      "Ġpatterns": 8204,
      "utor": 8205,
      "Ġlegis": 8206,
      "ìĺ¤ëĬĶ": 8207,
      "ĠëĬĲëģ¼": 8208,
      "Ġtox": 8209,
      "Ġpanel": 8210,
      "Ġmist": 8211,
      "Ġìłľê³µíķľëĭ¤": 8212,
      "ĠDefendant": 8213,
      "Ġ2012": 8214,
      "ëĵłì§Ģ": 8215,
      "eal": 8216,
      "Ġê·¼ë¡ľ": 8217,
      "ê¶ģ": 8218,
      "ĠMetropolitan": 8219,
      "Ġmap": 8220,
      "ĠApril": 8221,
      "ony": 8222,
      "Ġconstant": 8223,
      "Ġtourism": 8224,
      "amsung": 8225,
      "íķĺì£ł": 8226,
      "Stud": 8227,
      "ĠìĿ¼ìĸ´ëĤĺ": 8228,
      "ì²«": 8229,
      "ë¯¸íĦ°": 8230,
      "ilies": 8231,
      "riculum": 8232,
      "ĠëģĬ": 8233,
      "ĠìłĢíķŃ": 8234,
      "miss": 8235,
      "ëĭĻëĭĪëĭ¤": 8236,
      "Ġë¿": 8237,
      "ĠìĿĺíķĺìĹ¬": 8238,
      "ML": 8239,
      "ĠAm": 8240,
      "ëĮ": 8241,
      "Ġëª©ìłģìľ¼ë¡ľ": 8242,
      "ìĭłìĿĦ": 8243,
      "Ġê°ģê°ģìĿĺ": 8244,
      "Ġì¸µ": 8245,
      "Ġvisual": 8246,
      "ĠìŀĪì£ł": 8247,
      "ĠìłķíĻķíķľ": 8248,
      "ĠëŁ¬ìĭľìķĦ": 8249,
      "Ġrule": 8250,
      "ĺë¦¬": 8251,
      "Ġdemonstr": 8252,
      "Ġê¶ģê¸Ī": 8253,
      "Hi": 8254,
      "Ġconsult": 8255,
      "Ġschedule": 8256,
      "Ġple": 8257,
      "CS": 8258,
      "ĠëĨĴìķĺëĭ¤": 8259,
      "lick": 8260,
      "íĶĪ": 8261,
      "ĠYes": 8262,
      "Ġlines": 8263,
      "othing": 8264,
      "Ġê¸Īì§Ģ": 8265,
      "Ġuniversity": 8266,
      "Ġfelt": 8267,
      "Ġìĭłíĺ¸ë¥¼": 8268,
      "ë¹Ħìļ©": 8269,
      "ĠAssociation": 8270,
      "Ġindependent": 8271,
      "Ġrise": 8272,
      "ìłĲìĹĲ": 8273,
      "encing": 8274,
      "ìķĦìĦľ": 8275,
      "Ġê°Ħëĭ¨": 8276,
      "Ġìĭ«ìĸ´": 8277,
      "ĠíĮĲëĭ¨ëĲľëĭ¤": 8278,
      "Ġê°Ģì§Ī": 8279,
      "arter": 8280,
      "44": 8281,
      "Ġê·¸ë¦¬": 8282,
      "ê»ĺìĦľ": 8283,
      "Ġê¸°ë°ĺìĿĺ": 8284,
      "Ġë§Īì°¬ê°Ģì§Ģ": 8285,
      "Ġì§ģë¬´": 8286,
      "ĠëĦĺìĸ´": 8287,
      "Ġë¶Īê°ĢëĬ¥": 8288,
      "Ġsecure": 8289,
      "ë¶ĦìĹĲ": 8290,
      "ev": 8291,
      "inate": 8292,
      "ĠCommun": 8293,
      "ĠTable": 8294,
      "Ġcontains": 8295,
      "Ġíľ´ëĮĢ": 8296,
      "ĠSur": 8297,
      "ê³µíķĻ": 8298,
      "ĠOct": 8299,
      "ìĤ°ìĹ¼": 8300,
      "ĠìĤ°ì¶ľ": 8301,
      "Hz": 8302,
      "ero": 8303,
      "Ġearlier": 8304,
      "Įë¥Ń": 8305,
      "Ġmembr": 8306,
      "Ġagency": 8307,
      "Ġdebt": 8308,
      "Ġing": 8309,
      "Ġlibr": 8310,
      "ìĿ´ê±°": 8311,
      "Through": 8312,
      "ĠìĺģìĹħ": 8313,
      "ĠëĶ°ëĿ¼ìĦľ": 8314,
      "Mean": 8315,
      "ë§ĮìĿĺ": 8316,
      "ìŀłê¹Ĳ": 8317,
      "Ġwindow": 8318,
      "TS": 8319,
      "ĠAre": 8320,
      "ë©ĺ": 8321,
      "íı¬ì¸ł": 8322,
      "net": 8323,
      "Ġìłľê³µíķ©ëĭĪëĭ¤": 8324,
      "ĠìĿ´ê²Į": 8325,
      "ê´ĢìĿĺ": 8326,
      "ëģĦ": 8327,
      "ĠAir": 8328,
      "íķĺìĭ¤": 8329,
      "ĠìĺĪìłķìĿ´ëĭ¤": 8330,
      "dra": 8331,
      "íķĺìħ¨": 8332,
      "Ġresource": 8333,
      "erative": 8334,
      "Ġexport": 8335,
      "Ġemployment": 8336,
      "Ġgenerate": 8337,
      "ocation": 8338,
      "ĠíĿ¥ë¯¸": 8339,
      "ìłģìĿ´ëĭ¤": 8340,
      "ĠHong": 8341,
      "OW": 8342,
      "ĠëıĦìĽĢìĿĦ": 8343,
      "ĠìŀĲë³¸": 8344,
      "Ġêµ¬ëıĻ": 8345,
      "ìĿ´ëłĩê²Į": 8346,
      "ëĭ¤ìļ´": 8347,
      "Ġrapidly": 8348,
      "rupt": 8349,
      "Ġqual": 8350,
      "ĠëĮĢê¸°": 8351,
      "ìłĲìĿĢ": 8352,
      "ì§ĢìĻĢ": 8353,
      "iring": 8354,
      "Ġë¯¸ìĥĿë¬¼": 8355,
      "ĠìĤ¬ìłĦ": 8356,
      "Ġclub": 8357,
      "ancing": 8358,
      "Ġsurgery": 8359,
      "Ġë³´ì¡´": 8360,
      "ĠíŀĪ": 8361,
      "Ġestate": 8362,
      "Ġê·¸ëŀĺìĦľ": 8363,
      "Ġmis": 8364,
      "Ġcluster": 8365,
      "Ġsurpr": 8366,
      "íģ¬ë¦¬": 8367,
      "ĠìłĦíķ´": 8368,
      "Ġprint": 8369,
      "Ġtaste": 8370,
      "Ġcoff": 8371,
      "Ġprepare": 8372,
      "ĠYork": 8373,
      "Ġstream": 8374,
      "Ġmathemat": 8375,
      "Ġapplying": 8376,
      "ì¢Ģ": 8377,
      "ĠìĤ¬ëĬĶ": 8378,
      "Ġtick": 8379,
      "Ġdad": 8380,
      "PA": 8381,
      "Ġpull": 8382,
      "Ġê·ľìłľ": 8383,
      "Ġsynt": 8384,
      "ĠìĤ¬ìļ©ìŀĲê°Ģ": 8385,
      "ĠSung": 8386,
      "ĠìĿĺìĭ¬": 8387,
      "ĠìłĦë¶Ģ": 8388,
      "Ġê´Ģëł¨íķĺìĹ¬": 8389,
      "ĠJuly": 8390,
      "sp": 8391,
      "ĠBi": 8392,
      "Ġë¶ĦìĤ°": 8393,
      "ĠìĦ±ëĬ¥ìĿĦ": 8394,
      "rehens": 8395,
      "êµ¬ìĹĲ": 8396,
      "Ġíĺķíĥľë¡ľ": 8397,
      "Ġcritic": 8398,
      "ĠìłĦìŁģ": 8399,
      "DS": 8400,
      "ĠThey": 8401,
      "ĠìĻĦë²½": 8402,
      "ĠChang": 8403,
      "Ġìľ¤": 8404,
      "Ġìłķë¦¬": 8405,
      "iox": 8406,
      "Ġì²´íĹĺ": 8407,
      "Ġì§§": 8408,
      "Ġminimum": 8409,
      "Ġê±°ë¦¬": 8410,
      "ê°ĻìĿ´": 8411,
      "ĠDepartment": 8412,
      "Ġgate": 8413,
      "ëĺĲëĬĶ": 8414,
      "Ġëĵľë¦¬": 8415,
      "olute": 8416,
      "ìĭĿìĿĺ": 8417,
      "Ġnumer": 8418,
      "Ġtree": 8419,
      "mar": 8420,
      "Ġisolated": 8421,
      "Ġìĸ¸ìĸ´": 8422,
      "Ġpassed": 8423,
      "Ġbrought": 8424,
      "ĠëĤĺíķľíħĮ": 8425,
      "ĠìĪĺëĭ¨": 8426,
      "iques": 8427,
      "Ġëĭ¬ìĦ±": 8428,
      "Ġìľłíļ¨": 8429,
      "Ġê±°ì§ĵ": 8430,
      "Ġcommit": 8431,
      "ĠíķľêµŃìĿĺ": 8432,
      "Ġworked": 8433,
      "LA": 8434,
      "Ġevaluate": 8435,
      "Ġopened": 8436,
      "ĠíĮĮëĿ¼": 8437,
      "ì½©": 8438,
      "Ġë²½": 8439,
      "ìĺģìĥģ": 8440,
      "Ġì¦Ŀëªħ": 8441,
      "Ġbacterial": 8442,
      "Ġmur": 8443,
      "ansion": 8444,
      "ĠìķĦëıĻ": 8445,
      "rient": 8446,
      "Ġweather": 8447,
      "Ġshoot": 8448,
      "Ġìĭ¤ìłľë¡ľ": 8449,
      "ê²ģ": 8450,
      "Ġfacility": 8451,
      "Ġë¶Ģì°©": 8452,
      "íķĻëħĦ": 8453,
      "Ġbeginning": 8454,
      "38": 8455,
      "ë³´íĺ¸": 8456,
      "48": 8457,
      "Ġec": 8458,
      "Ġvisited": 8459,
      "Ġ2013": 8460,
      "ìĪĺì¤Ģ": 8461,
      "êµŃìĿ´": 8462,
      "ë¥łìĿĦ": 8463,
      "agraph": 8464,
      "Ġê·¼ë¬´": 8465,
      "cks": 8466,
      "Ġdrop": 8467,
      "Ġplaces": 8468,
      "Ġfigure": 8469,
      "bl": 8470,
      "Ġmetab": 8471,
      "ĠëĮĢìĤ¬": 8472,
      "inter": 8473,
      "ĠíĻľëıĻìĿĦ": 8474,
      "Ġê°ľìłķ": 8475,
      "Ġveget": 8476,
      "ë°ĺìĿĳ": 8477,
      "Ġstuff": 8478,
      "ìĭľíĤ¤ê¸°": 8479,
      "Ġconfiguration": 8480,
      "Ġpubl": 8481,
      "ëĿ¼ìĿ´ìĸ¸": 8482,
      "ech": 8483,
      "ëĭ¹íķľ": 8484,
[...]
